[PAD]
[UNK]
[CLS]
[SEP]
[MASK]
!
"
#
$
%
&
'
(
)
*
+
,
-
.
/
0
1
2
3
4
5
6
7
8
9
:
;
<
=
>
?
@
A
B
C
D
E
F
G
H
I
J
K
L
M
N
O
P
Q
R
S
T
U
V
W
X
Y
Z
[
\
]
^
_
`
a
b
c
d
e
f
g
h
i
j
k
l
m
n
o
p
q
r
s
t
u
v
w
x
y
z
{
|
}
~
·
∼
ㄱ
ㄲ
ㄳ
ㄴ
ㄵ
ㄶ
ㄷ
ㄸ
ㄹ
ㄺ
ㄻ
ㄼ
ㄽ
ㄾ
ㄿ
ㅀ
ㅁ
ㅂ
ㅃ
ㅄ
ㅅ
ㅆ
ㅇ
ㅈ
ㅉ
ㅊ
ㅋ
ㅌ
ㅍ
ㅎ
ㅏ
ㅐ
ㅑ
ㅒ
ㅓ
ㅔ
ㅕ
ㅖ
ㅗ
ㅘ
ㅙ
ㅚ
ㅛ
ㅜ
ㅝ
ㅞ
ㅟ
ㅠ
ㅡ
ㅢ
ㅣ
ㅤ
가
각
갂
갃
간
갅
갆
갇
갈
갉
갊
갋
갌
갍
갎
갏
감
갑
값
갓
갔
강
갖
갗
갘
같
갚
갛
개
객
갞
갠
갢
갣
갤
갥
갨
갬
갭
갮
갯
갰
갱
갴
갵
갶
갷
갸
갹
갺
갻
갼
갽
갿
걀
걄
걈
걉
걊
걋
걌
걍
걐
걑
걔
걕
걖
걘
걜
걠
걥
걧
걩
거
걱
걲
걳
건
걵
걷
걸
걹
걺
걼
걽
걿
검
겁
겂
것
겄
겅
겆
겇
겈
겉
겊
겋
게
겍
겐
겓
겔
겕
겖
겜
겝
겟
겠
겡
겢
겣
겤
겥
겦
겧
겨
격
겪
겫
견
겯
결
겱
겴
겷
겸
겹
겻
겼
경
겾
겿
곀
곁
곂
곃
계
곅
곆
곈
곋
곌
곕
곖
곗
곘
곙
곝
고
곡
곢
곤
곦
곧
골
곪
곬
곯
곰
곱
곲
곳
곴
공
곶
곷
곸
곹
곺
곻
과
곽
관
괁
괂
괃
괄
괆
괋
괌
괍
괏
괐
광
괒
괔
괕
괗
괘
괙
괜
괞
괠
괨
괩
괬
괭
괴
괵
괸
괺
괻
괼
굄
굅
굇
굈
굉
굍
교
굑
굔
굗
굘
굛
굡
굣
굥
굦
굫
구
국
굮
굯
군
굲
굳
굴
굵
굶
굷
굸
굻
굼
굽
굿
궁
궂
궃
궄
궅
궆
궇
궈
궉
권
궎
궐
궘
궙
궛
궜
궝
궞
궠
궡
궢
궤
궥
궨
궩
궪
궫
궬
궭
궮
궯
궳
궴
궶
궷
궸
궹
궻
궼
궿
귀
귁
귄
귈
귐
귑
귓
귔
귕
귖
귘
귚
규
귝
균
귡
귢
귤
귪
귬
귭
귯
귱
귳
그
극
귺
근
귾
귿
글
긁
긂
긄
긇
금
급
긊
긋
긌
긍
긎
긏
긐
긑
긒
긓
긔
긕
긘
긜
긤
긧
긩
기
긱
긲
긴
긶
긷
길
긺
긻
긼
긾
긿
김
깁
깂
깃
깄
깅
깆
깇
깈
깉
깊
깋
까
깍
깎
깐
깓
깔
깖
깜
깝
깞
깟
깠
깡
깢
깣
깤
깥
깧
깨
깩
깪
깬
깯
깰
깳
깵
깶
깸
깹
깻
깼
깽
깾
깿
꺀
꺃
꺄
꺅
꺆
꺇
꺈
꺌
꺏
꺔
꺕
꺗
꺘
꺙
꺜
꺠
꺢
꺤
꺨
꺰
꺲
꺴
꺵
꺼
꺽
꺾
껀
껃
껄
껌
껍
껏
껐
껑
껒
껕
껗
께
껙
껚
껜
껠
껨
껩
껫
껬
껭
껰
껴
껵
껶
껸
껼
꼄
꼅
꼇
꼈
꼉
꼍
꼐
꼔
꼚
꼣
꼬
꼭
꼮
꼰
꼱
꼲
꼳
꼴
꼸
꼻
꼼
꼽
꼿
꽁
꽂
꽃
꽅
꽆
꽇
꽈
꽉
꽊
꽌
꽐
꽑
꽘
꽛
꽜
꽝
꽣
꽤
꽥
꽦
꽨
꽬
꽸
꽹
꾀
꾁
꾄
꾇
꾈
꾐
꾑
꾔
꾕
꾜
꾩
꾬
꾭
꾱
꾳
꾸
꾹
꾺
꾼
꾾
꾿
꿀
꿁
꿂
꿃
꿅
꿇
꿈
꿉
꿋
꿍
꿎
꿏
꿐
꿑
꿓
꿔
꿕
꿘
꿜
꿝
꿥
꿧
꿨
꿩
꿯
꿰
꿱
꿴
꿸
꿻
뀀
뀁
뀄
뀅
뀉
뀌
뀍
뀐
뀔
뀙
뀜
뀝
뀟
뀠
뀡
뀢
뀨
뀩
뀪
뀬
뀰
뀸
뀽
뀿
끄
끅
끆
끈
끉
끊
끋
끌
끍
끎
끐
끓
끔
끕
끗
끙
끚
끛
끜
끝
끞
끟
끠
끤
끨
끱
끵
끼
끽
끾
낀
낄
낅
낋
낌
낍
낏
낐
낑
낔
나
낙
낚
낛
난
낝
낞
낟
날
낡
낢
낣
낤
낧
남
납
낪
낫
났
낭
낮
낯
낰
낱
낲
낳
내
낵
낸
낻
낼
낽
냄
냅
냇
냈
냉
냊
냌
냏
냐
냑
냔
냘
냙
냛
냠
냡
냣
냤
냥
냧
냨
냫
냬
냸
냹
냽
넀
넁
너
넉
넊
넋
넌
넎
넏
널
넑
넒
넓
넔
넖
넗
넘
넙
넚
넛
넜
넝
넞
넟
넠
넡
넢
넣
네
넥
넧
넨
넫
넬
넳
넴
넵
넷
넸
넹
넺
넼
넽
넾
넿
녀
녁
녂
녃
년
녅
녇
녈
녋
념
녑
녓
녔
녕
녖
녗
녘
녙
녛
녜
녝
녠
녤
녬
녭
녯
노
녹
녺
녻
논
녿
놀
놁
놂
놃
놄
놅
놈
놉
놊
놋
놌
농
놎
놏
놐
놑
높
놓
놔
놕
놘
놜
놤
놥
놧
놨
놩
놬
놯
놰
뇄
뇌
뇍
뇐
뇓
뇔
뇜
뇝
뇟
뇠
뇡
뇨
뇩
뇬
뇰
뇸
뇹
뇻
뇽
눁
눂
눃
누
눅
눈
눋
눌
눔
눕
눗
눙
눚
눛
눝
눞
눟
눠
눤
눨
눳
눴
눵
눼
뉀
뉇
뉈
뉍
뉏
뉘
뉙
뉜
뉠
뉤
뉨
뉩
뉫
뉭
뉴
뉵
뉸
뉼
뉽
늄
늅
늇
늉
늎
늏
느
늑
늒
늓
는
늕
늖
늗
늘
늙
늚
늛
늜
늝
늞
늟
늠
늡
늢
늣
늤
능
늦
늧
늨
늩
늪
늫
늬
늰
늴
늼
늿
닁
닂
니
닉
닊
닌
닍
닏
닐
닑
닒
닖
님
닙
닛
닜
닝
닞
닟
닠
닡
닢
닣
다
닥
닦
닧
단
닪
닫
달
닭
닮
닯
닰
닱
닲
닳
담
답
닶
닷
닸
당
닺
닻
닼
닽
닾
닿
대
댁
댄
댇
댈
댐
댑
댓
댔
댕
댖
댗
댘
댙
댚
댛
댜
댝
댠
댢
댣
댤
댥
댫
댬
댭
댯
댰
댱
댶
댷
댸
댼
덄
덈
덌
덍
더
덕
덖
던
덙
덚
덛
덜
덝
덞
덟
덠
덣
덤
덥
덧
덨
덩
덪
덫
덬
덭
덮
덯
데
덱
덲
덴
덷
델
덼
뎀
뎁
뎃
뎄
뎅
뎆
뎇
뎈
뎊
뎋
뎌
뎍
뎐
뎒
뎔
뎗
뎙
뎜
뎝
뎟
뎠
뎡
뎢
뎦
뎧
뎨
뎬
뎰
뎻
뎽
도
독
돆
돇
돈
돊
돋
돌
돍
돎
돐
돒
돓
돔
돕
돖
돗
돘
동
돚
돛
돜
돝
돞
돟
돠
돡
돣
돤
돥
돧
돨
돰
돱
돲
돳
돴
돵
돷
돸
돼
돽
돾
됀
됂
됄
됈
됌
됍
됏
됐
됑
됓
되
됙
된
됟
될
됡
됢
됣
됨
됩
됫
됬
됭
됮
됯
됰
됱
됳
됴
됵
됸
됺
됻
됼
둄
둅
둇
둉
둏
두
둑
둔
둗
둘
둙
둚
둞
둟
둠
둡
둣
둥
둦
둧
둩
둪
둫
둬
둰
둳
둴
둺
둻
둼
둿
뒀
뒁
뒇
뒈
뒙
뒜
뒝
뒤
뒥
뒨
뒬
뒴
뒵
뒷
뒸
뒹
뒽
뒾
뒿
듀
듁
듄
듈
듐
듑
듓
듕
듛
드
득
듟
든
듡
듣
들
듥
듦
듧
듨
듩
듪
듫
듬
듭
듮
듯
듰
등
듲
듳
듴
듵
듶
듷
듸
듹
듼
딀
딈
딉
딋
딍
딓
디
딕
딘
딛
딜
딤
딥
딦
딧
딨
딩
딪
딫
딬
딭
딮
딯
따
딱
딲
딳
딴
딷
딸
딹
딻
딿
땀
땁
땃
땄
땅
땇
땈
땉
땊
땋
때
땍
땐
땓
땔
땛
땜
땝
땟
땠
땡
땨
땰
땳
땵
땶
땸
땽
떄
떅
떈
떋
떌
떎
떔
떗
떘
떙
떠
떡
떢
떣
떤
떥
떦
떧
떨
떪
떫
떭
떯
떰
떱
떳
떴
떵
떷
떺
떻
떼
떽
뗀
뗃
뗄
뗆
뗉
뗌
뗍
뗏
뗐
뗑
뗔
뗗
뗘
뗜
뗝
뗞
뗠
뗡
뗣
뗫
뗬
뗳
뗴
뗵
뗶
뗸
뗻
뗼
똇
똈
똉
똏
또
똑
똒
똔
똗
똘
똙
똛
똝
똟
똠
똡
똣
똥
똧
똨
똩
똫
똬
똭
똰
똴
똵
똻
똽
뙀
뙁
뙇
뙈
뙉
뙍
뙒
뙛
뙜
뙡
뙤
뙥
뙨
뙬
뙵
뙿
뚀
뚁
뚂
뚆
뚊
뚕
뚜
뚝
뚞
뚠
뚢
뚣
뚤
뚥
뚦
뚧
뚨
뚫
뚬
뚭
뚮
뚯
뚱
뚳
뚵
뚶
뚷
뚸
뚼
뛀
뛈
뛌
뛔
뛗
뛟
뛰
뛱
뛴
뛷
뛸
뛹
뜀
뜁
뜅
뜌
뜍
뜏
뜛
뜨
뜩
뜬
뜯
뜰
뜲
뜳
뜵
뜷
뜸
뜹
뜻
뜼
뜽
뜾
뜿
띀
띁
띃
띄
띅
띈
띌
띎
띔
띕
띗
띙
띠
띡
띤
띧
띨
띰
띱
띳
띴
띵
띶
띹
라
락
띾
띿
란
랂
랃
랄
랅
랆
랋
람
랍
랎
랏
랐
랑
랒
랓
랔
랕
랖
랗
래
랙
랜
랝
랟
랠
랤
램
랩
랫
랬
랭
랮
랰
랲
랳
랴
략
랸
랼
럂
럄
럅
럆
럇
럈
량
럊
럌
럏
럐
럑
럒
럓
럔
럕
럖
럗
럙
럠
럤
럪
러
럭
럮
럯
런
럲
럳
럴
럶
럷
럸
럻
럼
럽
럾
럿
렀
렁
렂
렃
렄
렆
렇
레
렉
렌
렏
렐
렗
렘
렙
렛
렜
렝
렞
렠
렡
렣
려
력
렦
렧
련
렩
렪
렫
렬
렴
렵
렶
렷
렸
령
렺
렼
렾
렿
례
롁
롄
롈
롍
롐
롑
롓
롔
롖
롘
로
록
롟
론
롣
롤
롥
롧
롬
롭
롮
롯
롱
롲
롳
롴
롵
롶
롷
롸
롹
롼
뢀
뢈
뢉
뢍
뢔
뢕
뢠
뢨
뢭
뢰
뢱
뢳
뢴
뢶
뢸
룀
룁
룃
룄
룅
료
룍
룏
룐
룑
룓
룔
룛
룜
룝
룟
룡
룥
룦
루
룩
룪
룬
룯
룰
룱
룳
룴
룸
룹
룺
룻
룽
뤀
뤁
뤂
뤄
뤅
뤈
뤌
뤔
뤕
뤗
뤘
뤙
뤟
뤠
뤡
뤤
뤨
뤩
뤬
뤰
뤳
뤵
뤼
뤽
륀
륄
륌
륍
륏
륐
륑
륒
류
륙
륜
륝
률
륡
륨
륩
륫
륭
륮
륰
륱
륲
륳
르
륵
륶
륷
른
륺
륻
를
륽
륾
륿
릁
릂
릃
름
릅
릇
릉
릊
릋
릌
릍
릎
릏
릐
릔
릘
릚
릞
릠
릡
릣
릫
리
릭
릮
릯
린
릳
릴
릵
릷
림
립
릾
릿
맀
링
맂
맃
맄
맅
맆
맇
마
막
맊
맋
만
맍
많
맏
말
맑
맒
맓
맔
맕
맗
맘
맙
맚
맛
맜
망
맞
맟
맠
맡
맢
맣
매
맥
맨
맪
맫
맬
맳
맴
맵
맷
맸
맹
맺
맻
맼
맽
맾
맿
먀
먁
먃
먄
먅
먆
먈
먍
먏
먐
먑
먕
먖
먗
먘
먙
먚
먜
먝
먠
먯
머
먹
먺
먼
먽
먾
먿
멀
멁
멂
멆
멇
멈
멉
멊
멋
멌
멍
멎
멏
멐
멑
멒
멓
메
멕
멘
멛
멜
멞
멟
멤
멥
멧
멨
멩
멪
멫
멬
멭
멮
며
멱
면
멵
멷
멸
멹
멻
멽
멿
몀
몁
몃
몄
명
몆
몇
몈
몉
몊
몋
몌
몍
몐
몔
몕
몟
몡
몢
몣
모
목
몪
몫
몬
몭
몮
몯
몰
몱
몲
몳
몴
몵
몷
몸
몹
못
몼
몽
몾
몿
뫀
뫁
뫂
뫃
뫄
뫅
뫇
뫈
뫊
뫌
뫔
뫕
뫘
뫙
뫟
뫠
뫤
뫨
뫼
뫽
묀
묄
묌
묍
묏
묑
묘
묙
묚
묜
묟
묠
묦
묨
묩
묫
묬
묭
묯
묱
묳
무
묵
묶
묷
문
묹
묺
묻
물
묽
묾
뭀
뭃
뭄
뭅
뭇
뭈
뭉
뭊
뭋
뭌
뭍
뭎
뭏
뭐
뭔
뭘
뭟
뭠
뭡
뭣
뭤
뭥
뭦
뭩
뭫
뭬
뭭
뭰
뭴
뭵
뭼
뭽
뮁
뮈
뮉
뮌
뮐
뮙
뮛
뮝
뮤
뮥
뮧
뮨
뮫
뮬
뮳
뮴
뮶
뮷
뮹
뮺
뮻
뮽
므
믁
믂
믄
믇
믈
믌
믏
믐
믑
믓
믕
믖
믗
믘
믛
믜
믠
믨
믬
믯
믱
미
믹
믺
민
믽
믾
믿
밀
밁
밂
밇
밈
밉
밊
밋
밌
밍
밎
및
밐
밑
밒
밓
바
박
밖
밗
반
밙
밚
받
발
밝
밞
밟
밠
밡
밢
밣
밤
밥
밦
밧
밨
방
밪
밫
밬
밭
밮
밯
배
백
밲
밳
밴
밶
밷
밸
밻
밼
뱀
뱁
뱃
뱄
뱅
뱆
뱇
뱈
뱉
뱊
뱋
뱌
뱍
뱎
뱏
뱐
뱒
뱓
뱔
뱕
뱚
뱛
뱜
뱝
뱞
뱟
뱡
뱦
뱨
뱩
뱬
뱸
뱽
버
벅
벆
벇
번
벉
벋
벌
벍
벎
벏
벐
벑
벒
벓
범
법
벖
벗
벘
벙
벚
벛
벜
벝
벞
벟
베
벡
벢
벤
벧
벨
벩
벫
벭
벯
벰
벱
벳
벴
벵
벸
벹
벼
벽
벾
변
볂
볃
별
볅
볈
볉
볋
볌
볍
볎
볏
볐
병
볒
볓
볔
볕
볖
볗
볘
볜
볠
볫
볱
보
복
볶
볷
본
볹
볻
볼
볽
볾
봀
봁
봂
봃
봄
봅
봆
봇
봈
봉
봊
봋
봌
봍
봎
봏
봐
봑
봒
봔
봗
봘
봙
봠
봡
봣
봤
봥
봨
봫
봬
봭
봰
봱
봴
봵
봽
뵀
뵁
뵈
뵉
뵌
뵐
뵑
뵘
뵙
뵛
뵜
뵝
뵤
뵥
뵧
뵨
뵫
뵬
뵭
뵲
뵳
뵴
뵵
뵶
뵷
뵸
뵹
뵻
뵼
부
북
붂
붃
분
붅
붆
붇
불
붉
붊
붋
붍
붎
붏
붐
붑
붒
붓
붔
붕
붖
붗
붘
붙
붚
붛
붜
붝
붠
붤
붭
붯
붰
붱
붴
붵
붸
붹
붼
붿
뷀
뷁
뷃
뷇
뷉
뷋
뷍
뷔
뷕
뷘
뷜
뷤
뷥
뷧
뷩
뷫
뷮
뷰
뷱
뷴
뷵
뷷
뷸
뷹
뷼
븀
븁
븃
븅
븉
브
븍
븐
븓
블
븕
븖
븗
븘
븛
븜
븝
븞
븟
븠
븡
븥
븧
븨
븩
븬
븰
븸
븽
븿
빂
비
빅
빆
빈
빋
빌
빍
빎
빏
빒
빔
빕
빗
빘
빙
빚
빛
빜
빝
빞
빟
빠
빡
빢
빣
빤
빥
빧
빨
빩
빪
빫
빬
빮
빰
빱
빳
빴
빵
빶
빷
빸
빹
빺
빻
빼
빽
뺀
뺃
뺄
뺌
뺍
뺏
뺐
뺑
뺒
뺓
뺕
뺘
뺙
뺛
뺜
뺝
뺟
뺠
뺡
뺢
뺥
뺦
뺧
뺨
뺩
뺭
뺮
뺳
뺴
뺵
뺶
뺸
뺹
뺼
뻄
뻇
뻈
뻉
뻐
뻑
뻒
뻔
뻕
뻖
뻗
뻘
뻙
뻚
뻛
뻞
뻟
뻠
뻡
뻢
뻣
뻤
뻥
뻦
뻨
뻩
뻪
뻬
뻭
뻰
뻴
뻼
뻿
뼀
뼁
뼇
뼈
뼉
뼌
뼏
뼐
뼘
뼙
뼛
뼜
뼝
뼞
뼠
뼡
뼢
뼤
뼥
뼬
뼱
뼵
뼸
뼼
뽀
뽁
뽂
뽃
뽄
뽇
뽈
뽍
뽐
뽑
뽒
뽓
뽔
뽕
뽖
뽘
뽚
뽛
뽜
뽝
뽟
뽥
뽧
뽭
뽱
뽷
뽸
뾂
뾃
뾄
뾅
뾆
뾇
뾔
뾰
뾱
뾲
뾴
뾸
뾹
뾻
뾼
뿁
뿅
뿉
뿋
뿌
뿍
뿎
뿏
뿐
뿑
뿒
뿓
뿔
뿕
뿗
뿘
뿙
뿚
뿛
뿜
뿝
뿞
뿟
뿠
뿡
뿤
뿦
뿧
뿨
뿩
뿰
쀄
쀅
쀆
쀍
쀎
쀏
쀐
쀑
쀒
쀓
쀠
쀬
쀲
쀵
쀼
쀽
쀾
쀿
쁀
쁅
쁋
쁌
쁎
쁏
쁐
쁑
쁓
쁕
쁖
쁘
쁙
쁚
쁜
쁠
쁢
쁥
쁨
쁩
쁫
쁭
쁰
쁴
쁶
삁
삂
삐
삑
삒
삔
삘
삚
삜
삝
삠
삡
삣
삤
삥
삧
사
삭
삮
삯
산
삱
삲
삳
살
삵
삶
삷
삺
삻
삼
삽
삾
삿
샀
상
샂
샃
샄
샅
샆
샇
새
색
샊
샌
샏
샐
샑
샒
샓
샘
샙
샛
샜
생
샞
샟
샠
샡
샣
샤
샥
샦
샨
샪
샫
샬
샴
샵
샷
샸
샹
샼
샽
샾
섀
섁
섄
섅
섈
섊
섏
섐
섑
섓
섕
섘
서
석
섞
섟
선
섡
섢
섣
설
섥
섦
섧
섨
섩
섪
섫
섬
섭
섮
섯
섰
성
섲
섳
섴
섵
섶
섷
세
섹
섺
섻
센
섾
섿
셀
셁
셈
셉
셊
셋
셌
셍
셐
셑
셒
셔
셕
셖
셗
션
셙
셛
셜
셝
셟
셤
셥
셧
셨
셩
셫
셬
셮
셯
셰
셱
셴
셸
솀
솁
솂
솃
솄
솅
솈
솊
소
속
솎
솏
손
솑
솒
솓
솔
솖
솘
솜
솝
솟
송
솢
솣
솤
솥
솦
솧
솨
솩
솬
솰
솸
솹
솻
솽
쇄
쇅
쇈
쇌
쇐
쇔
쇗
쇘
쇙
쇝
쇠
쇡
쇤
쇨
쇰
쇱
쇳
쇴
쇵
쇻
쇼
쇽
숀
숁
숄
숌
숍
숏
숑
숔
숕
숖
수
숙
숚
순
숝
숞
숟
술
숡
숤
숧
숨
숩
숫
숬
숭
숮
숯
숰
숱
숲
숳
숴
숸
숼
쉄
쉅
쉇
쉈
쉉
쉐
쉑
쉔
쉕
쉘
쉙
쉛
쉜
쉞
쉠
쉡
쉣
쉥
쉩
쉪
쉬
쉭
쉰
쉴
쉼
쉽
쉾
쉿
슁
슂
슅
슆
슈
슉
슊
슌
슐
슘
슙
슛
슝
슟
슠
슡
슢
스
슥
슦
슨
슫
슬
슭
슮
슯
슲
슳
슴
습
슶
슷
슸
승
슺
슻
슼
슽
슾
슿
싀
싁
싄
싈
싐
싑
싔
싕
싖
싘
싚
싛
시
식
싞
싟
신
싡
싢
싣
실
싥
싦
싧
싨
싩
싪
싫
심
십
싮
싯
싰
싱
싲
싳
싴
싵
싶
싷
싸
싹
싺
싻
싼
싽
싾
싿
쌀
쌂
쌇
쌈
쌉
쌋
쌌
쌍
쌏
쌐
쌑
쌒
쌓
쌔
쌕
쌘
쌙
쌚
쌛
쌜
쌞
쌟
쌤
쌥
쌧
쌨
쌩
쌯
쌰
쌱
쌴
쌵
쌸
쌻
썀
썁
썅
썋
썌
썍
썎
썐
썖
썜
썠
썡
써
썩
썪
썬
썭
썮
썯
썰
썱
썲
썷
썸
썹
썻
썼
썽
썾
쎀
쎂
쎃
쎄
쎅
쎆
쎈
쎌
쎔
쎕
쎗
쎘
쎙
쎠
쎤
쎥
쎨
쎳
쎴
쎵
쎼
쎽
쎾
쏀
쏄
쏏
쏘
쏙
쏚
쏛
쏜
쏝
쏟
쏠
쏢
쏧
쏨
쏩
쏫
쏬
쏭
쏱
쏲
쏳
쏴
쏵
쏸
쏼
쏽
쐇
쐈
쐉
쐌
쐏
쐐
쐑
쐘
쐙
쐤
쐬
쐭
쐰
쐴
쐼
쐽
쑀
쑁
쑈
쑉
쑊
쑌
쑍
쑐
쑘
쑛
쑝
쑞
쑤
쑥
쑦
쑨
쑩
쑫
쑬
쑴
쑵
쑷
쑹
쑻
쒀
쒂
쒈
쒓
쒔
쒜
쒠
쒭
쒯
쒰
쒸
쒹
쒼
쓉
쓔
쓕
쓖
쓘
쓚
쓜
쓧
쓩
쓬
쓰
쓱
쓲
쓴
쓷
쓸
쓹
쓺
쓿
씀
씁
씃
씄
씅
씇
씉
씋
씌
씍
씐
씔
씜
씝
씠
씡
씤
씥
씧
씨
씩
씪
씬
씯
씰
씸
씹
씻
씼
씽
앀
앁
앂
앃
아
악
앆
앇
안
앉
않
앋
알
앍
앎
앏
앐
앑
앒
앓
암
압
앖
앗
았
앙
앚
앛
앜
앝
앞
앟
애
액
앢
앤
앦
앧
앨
앩
앫
앰
앱
앲
앳
앴
앵
앶
앸
앹
앺
앻
야
약
앾
앿
얀
얂
얃
얄
얅
얆
얇
얉
얊
얋
얌
얍
얎
얏
얐
양
얒
얓
얔
얕
얖
얗
얘
얙
얜
얠
얨
얩
얫
얬
얭
어
억
얶
얷
언
얹
얺
얻
얼
얽
얾
얿
엃
엄
업
없
엇
었
엉
엊
엋
엌
엍
엎
엏
에
엑
엓
엔
엕
엗
엘
엙
엜
엞
엟
엠
엡
엢
엣
엤
엥
엦
엨
엩
엪
엫
여
역
엮
엯
연
엱
엲
엳
열
엵
엶
엷
엸
엹
엺
엻
염
엽
엾
엿
였
영
옂
옃
옄
옅
옆
옇
예
옉
옌
옏
옐
옒
옘
옙
옛
옜
옝
옞
옟
옠
옡
옢
옣
오
옥
옦
옧
온
옪
옫
올
옭
옮
옯
옰
옱
옲
옳
옴
옵
옶
옷
옸
옹
옺
옻
옼
옽
옾
옿
와
왁
왂
왃
완
왇
왈
왉
왐
왑
왓
왔
왕
왘
왙
왚
왛
왜
왝
왠
왤
왦
왧
왬
왭
왯
왰
왱
왳
왴
왶
왷
외
왹
왼
왿
욀
욈
욉
욋
욌
욍
욎
욓
요
욕
욗
욘
욙
욚
욛
욜
욝
욟
욡
욢
욣
욤
욥
욦
욧
욨
용
욪
욬
욭
욮
욯
우
욱
욲
욳
운
욵
욶
욷
울
욹
욺
욼
욽
욿
움
웁
웂
웃
웄
웅
웆
웇
웈
웉
웊
웋
워
웍
원
웑
웒
웓
월
웕
웖
웗
웚
웛
웜
웝
웞
웟
웠
웡
웣
웤
웥
웦
웧
웨
웩
웬
웰
웱
웳
웴
웸
웹
웺
웻
웽
윀
윁
위
윅
윈
윋
윌
윐
윔
윕
윖
윗
윘
윙
윚
윛
윜
윝
윞
윟
유
육
윢
윤
윥
윧
율
윪
윬
윮
윯
윰
윱
윲
윳
윴
융
윶
윷
윸
윺
윻
으
윽
윾
은
읁
읂
읃
을
읅
읆
읇
읈
읉
읊
읋
음
읍
읎
읏
읐
응
읒
읓
읔
읕
읖
읗
의
읙
읚
읜
읠
읤
읨
읩
읪
읫
읬
읭
읮
읯
읰
읲
읳
이
익
읶
읷
인
읹
읺
읻
일
읽
읾
읿
잀
잂
잃
임
입
잆
잇
있
잉
잊
잋
잌
잍
잎
잏
자
작
잒
잓
잔
잕
잖
잗
잘
잙
잚
잛
잝
잞
잟
잠
잡
잢
잣
잤
장
잦
잧
잨
잩
잪
잫
재
잭
잰
잲
잳
잴
잶
잼
잽
잾
잿
쟀
쟁
쟂
쟃
쟄
쟆
쟇
쟈
쟉
쟌
쟎
쟏
쟐
쟑
쟔
쟕
쟗
쟘
쟙
쟛
쟜
쟝
쟞
쟟
쟠
쟤
쟥
쟨
쟬
쟴
쟸
쟹
저
적
젂
젃
전
젅
젆
젇
절
젉
젊
젋
젌
젎
젏
점
접
젒
젓
젔
정
젖
젗
젘
젙
젚
젛
제
젝
젞
젟
젠
젡
젣
젤
젧
젫
젬
젭
젯
젰
젱
젲
젴
젵
젶
젷
져
젹
젺
젻
젼
젾
젿
졀
졁
졂
졇
졈
졉
졊
졋
졌
졍
졎
졏
졐
졑
졒
졓
졔
졕
졗
졘
졛
졜
졧
졨
졩
조
족
졳
존
졵
졶
졷
졸
졺
졽
졾
졿
좀
좁
좂
좃
좄
종
좆
좇
좈
좉
좊
좋
좌
좍
좐
좔
좜
좝
좟
좠
좡
좢
좦
좧
좨
좬
좭
좰
좼
좽
죁
죄
죅
죈
죌
죔
죕
죗
죘
죙
죚
죠
죡
죢
죤
죥
죧
죨
죰
죱
죳
죴
죵
죶
죷
죸
죹
죻
주
죽
죾
준
줁
줃
줄
줅
줆
줈
줉
줋
줌
줍
줎
줏
줐
중
줒
줓
줔
줕
줗
줘
줙
줚
줜
줠
줦
줫
줬
줭
줮
줳
줴
줵
줸
줼
쥄
쥅
쥆
쥇
쥈
쥉
쥐
쥑
쥔
쥗
쥘
쥠
쥡
쥣
쥤
쥥
쥪
쥬
쥭
쥰
쥳
쥴
쥻
쥼
쥽
쥿
즀
즁
즈
즉
즊
즋
즌
즏
즐
즑
즕
즘
즙
즛
증
즞
즡
즣
즤
즥
즨
즬
즮
즴
즵
즹
지
직
짂
진
짅
짆
짇
질
짉
짊
짋
짌
짍
짎
짏
짐
집
짒
짓
짔
징
짖
짗
짘
짙
짚
짛
짜
짝
짞
짠
짡
짢
짤
짥
짦
짧
짩
짪
짫
짬
짭
짮
짯
짰
짱
짲
짴
짷
째
짹
짼
쨀
쨈
쨉
쨋
쨌
쨍
쨎
쨏
쨓
쨔
쨕
쨖
쨘
쨚
쨜
쨟
쨤
쨥
쨧
쨨
쨩
쨰
쨱
쨴
쩁
쩃
쩄
쩅
쩌
쩍
쩎
쩐
쩒
쩔
쩖
쩗
쩜
쩝
쩟
쩠
쩡
쩧
쩨
쩩
쩬
쩯
쩰
쩸
쩹
쩻
쩼
쩽
쪄
쪈
쪌
쪏
쪕
쪗
쪘
쪙
쪠
쪤
쪱
쪵
쪹
쪼
쪽
쪾
쫀
쫂
쫃
쫄
쫅
쫌
쫍
쫏
쫐
쫑
쫒
쫓
쫔
쫕
쫖
쫗
쫘
쫙
쫜
쫠
쫣
쫬
쫭
쫰
쫴
쬈
쬐
쬔
쬘
쬠
쬡
쬤
쬥
쬧
쬬
쬭
쬮
쬰
쬲
쬷
쬼
쬽
쬿
쭀
쭁
쭂
쭃
쭈
쭉
쭊
쭌
쭐
쭘
쭙
쭚
쭛
쭝
쭞
쭟
쭤
쭥
쭭
쭷
쭸
쭹
쭿
쮀
쮓
쮜
쮝
쮠
쮤
쮬
쮯
쮸
쮹
쯀
쯇
쯉
쯊
쯋
쯍
쯑
쯔
쯕
쯘
쯜
쯤
쯥
쯧
쯩
쯪
쯫
쯬
쯰
쯱
쯴
찄
찌
찍
찎
찏
찐
찓
찔
찗
찛
찜
찝
찟
찡
찢
찣
찤
찥
찦
찧
차
착
찪
찫
찬
찭
찮
찯
찰
찱
찲
찴
찶
찷
참
찹
찺
찻
찼
창
찾
찿
챀
챁
챂
챃
채
책
챇
챈
챊
챌
챔
챕
챗
챘
챙
챚
챠
챡
챣
챤
챦
챨
챯
챰
챱
챲
챳
챴
챵
챶
챷
챸
챹
챺
챻
챼
챽
첀
첄
처
척
첚
첛
천
첞
첟
철
첡
첢
첣
첤
첥
첦
첧
첨
첩
첪
첫
첬
청
첮
첯
첰
첱
첲
첳
체
첵
첸
첻
첼
쳄
쳅
쳇
쳈
쳉
쳌
쳎
쳐
쳑
쳔
쳕
쳗
쳘
쳠
쳡
쳣
쳤
쳥
쳧
쳫
쳬
쳰
쳴
쳸
쳹
쳺
쳻
촁
촅
초
촉
촊
촌
촍
촎
촏
촐
촑
촒
촓
촔
촕
촖
촘
촙
촛
총
촞
촟
촠
촡
촢
촣
촤
촥
촨
촬
촵
촷
촹
촻
촾
쵀
쵁
쵃
쵄
쵇
최
쵝
쵠
쵣
쵤
쵬
쵭
쵮
쵯
쵱
쵷
쵸
쵹
쵼
춀
춈
춉
춋
춌
춍
춏
추
축
춖
춗
춘
춛
출
춝
춟
춠
춢
춣
춤
춥
춦
춧
춨
충
춪
춫
춬
춭
춮
춯
춰
춱
춴
춸
췁
췃
췄
췅
췇
췌
췍
췐
췔
췜
췟
췡
췤
취
췩
췬
췰
췸
췹
췻
췼
췽
츀
츄
츅
츆
츈
츌
츎
츔
츕
츗
츙
츠
측
츤
츨
츩
츮
츰
츱
츳
층
츷
츸
츺
츻
츼
츽
칀
치
칙
칚
친
칝
칞
칟
칠
칡
칢
침
칩
칫
칬
칭
칮
칯
칰
칱
칲
칳
카
칵
칸
칻
칼
캄
캅
캆
캇
캈
캉
캋
캌
캍
캎
캐
캑
캔
캘
캠
캡
캢
캣
캤
캥
캪
캬
캭
캰
캴
캼
캽
캿
컀
컁
컄
컅
컈
컛
커
컥
컦
컨
컫
컬
컴
컵
컶
컷
컸
컹
컺
컼
컽
컾
케
켁
켄
켇
켈
켐
켑
켓
켔
켕
켘
켙
켚
켛
켜
켝
켞
켠
켣
켤
켬
켭
켮
켯
켰
켱
켳
켵
켷
켸
콀
콉
콋
코
콕
콘
콙
콛
콜
콢
콤
콥
콦
콧
콩
콪
콫
콬
콭
콮
콯
콰
콱
콴
콸
쾀
쾁
쾃
쾅
쾌
쾍
쾐
쾔
쾡
쾨
쾩
쾬
쾰
쾹
쾻
쾽
쿄
쿈
쿌
쿔
쿗
쿙
쿜
쿠
쿡
쿤
쿨
쿭
쿯
쿰
쿱
쿳
쿵
쿸
쿹
쿼
쿽
퀀
퀄
퀌
퀍
퀏
퀐
퀑
퀘
퀙
퀜
퀠
퀡
퀧
퀩
퀫
퀭
퀴
퀵
퀸
퀼
큄
큅
큇
큉
큌
큐
큔
큗
큘
큠
큡
큣
큥
큨
큪
큫
크
큭
큮
큰
큱
큲
클
큹
큻
큼
큽
큾
큿
킁
킄
킅
킇
킈
킉
킌
킐
킝
키
킥
킨
킫
킬
킴
킵
킷
킸
킹
킻
킼
킽
킾
타
탁
탃
탄
탆
탇
탈
탉
탍
탏
탐
탑
탒
탓
탔
탕
탖
탗
탘
탙
탚
태
택
탞
탠
탡
탢
탣
탤
탬
탭
탯
탰
탱
탲
탴
탵
탶
탸
탹
탺
탼
탾
턀
턁
턈
턌
턍
턎
턐
턑
턒
턓
턔
턕
턜
턤
턩
터
턱
턴
턷
털
턹
턺
텀
텁
텂
텃
텄
텅
텆
텈
텉
텊
텋
테
텍
텐
텓
텔
텛
템
텝
텟
텡
텢
텣
텤
텥
텦
텧
텨
텩
텪
텬
텰
텱
텳
텸
텹
텻
텼
텽
톁
톃
톄
톅
톈
톔
톕
톗
톙
토
톡
톤
톧
톨
톩
톮
톰
톱
톲
톳
통
톶
톷
톸
톹
톺
톻
톼
톽
퇀
퇄
퇌
퇑
퇗
퇘
퇣
퇫
퇬
퇴
퇵
퇸
퇼
툄
툅
툇
툉
툋
툏
툐
툑
툓
툔
툘
툝
툠
툡
툥
툩
툫
투
툭
툰
툴
툵
툸
툹
툻
툼
툽
툿
퉀
퉁
퉅
퉆
퉈
퉌
퉐
퉜
퉝
퉤
퉥
퉨
퉷
퉸
퉹
튀
튁
튄
튈
튐
튑
튓
튔
튕
튙
튜
튝
튠
튤
튦
튬
튭
튯
튱
튲
튳
튵
튶
트
특
튻
튼
튽
튿
틀
틂
틇
틈
틉
틊
틋
틍
틏
틐
틑
틔
틕
틘
틜
틤
틥
틧
틩
티
틱
틴
틷
틸
틼
팀
팁
팂
팃
팄
팅
팈
팉
팊
파
팍
팎
팏
판
팑
팒
팓
팔
팖
팗
팚
팛
팜
팝
팟
팠
팡
팢
팣
팤
팥
팦
패
팩
팬
팭
팯
팰
팵
팸
팹
팻
팼
팽
퍁
퍄
퍅
퍈
퍌
퍐
퍗
퍘
퍙
퍚
퍠
퍡
퍤
퍭
퍵
퍼
퍽
퍾
퍿
펀
펁
펄
펋
펌
펍
펏
펐
펑
펔
펕
펖
펗
페
펙
펜
펠
펨
펩
펫
펬
펭
펰
펱
펲
펴
펵
편
펺
펻
펼
폁
폂
폃
폄
폅
폇
폈
평
폍
폏
폐
폑
폔
폕
폘
폠
폡
폣
폥
폦
포
폭
폮
폯
폰
폳
폴
폶
폼
폽
폿
퐁
퐂
퐃
퐄
퐅
퐇
퐈
퐉
퐌
퐐
퐑
퐛
퐝
퐞
퐠
퐤
퐷
푀
푁
푄
푈
푓
푕
표
푝
푠
푣
푤
푥
푧
푨
푩
푫
푭
푯
푱
푴
푶
푷
푸
푹
푼
푾
푿
풀
풂
풄
풆
풇
품
풉
풋
풍
풏
풐
풑
풒
풓
풔
풕
풘
풩
풰
풴
풸
풿
퓅
퓌
퓍
퓐
퓔
퓜
퓝
퓟
퓡
퓨
퓩
퓬
퓰
퓳
퓴
퓵
퓸
퓹
퓻
퓽
픁
픃
프
픅
픈
플
픍
픎
픐
픒
픓
픔
픕
픗
픘
픙
픜
픝
픞
픟
픠
픤
픨
픱
픵
피
픽
핀
핁
핃
필
핊
핌
핍
핎
핏
핑
핒
핓
핔
핕
핖
핗
하
학
핚
핛
한
핝
핞
핟
할
핡
핢
핣
핤
핥
핦
핧
함
합
핪
핫
핬
항
핮
핯
핰
핱
핲
핳
해
핵
핶
핷
핸
핻
핼
핽
햄
햅
햇
했
행
햊
햋
햌
햍
햎
햏
햐
햑
햔
햘
햙
햚
햛
햝
햟
햠
햡
햣
햤
향
햩
햫
햬
햭
햰
햺
햻
햿
헀
헁
허
헉
헌
헏
헐
헑
헒
헓
헔
헕
헗
험
헙
헚
헛
헜
헝
헠
헡
헢
헣
헤
헥
헨
헬
헭
헯
헰
헴
헵
헷
헸
헹
헺
헼
헾
헿
혀
혁
혂
현
혅
혈
혍
혐
협
혒
혓
혔
형
혖
혘
혙
혛
혜
혠
혣
혤
혩
혬
혭
혯
혰
혱
혲
호
혹
혺
혻
혼
혿
홀
홁
홅
홇
홈
홉
홋
홍
홐
홑
홓
화
확
홖
홗
환
홛
활
홝
홞
홣
홤
홥
홧
홨
황
홫
홬
홭
홯
홰
홱
홳
홴
횂
횃
횄
횅
회
획
횐
횓
횔
횜
횝
횞
횟
횡
횢
횧
효
횩
횬
횰
횸
횹
횻
횽
후
훅
훈
훋
훌
훍
훎
훐
훑
훒
훓
훔
훕
훗
훙
훚
훛
훜
훝
훞
훟
훠
훡
훤
훨
훮
훯
훰
훱
훳
훵
훸
훻
훼
훽
휀
휄
휋
휏
휑
휔
휘
휙
휜
휝
휠
휢
휨
휩
휪
휫
휭
휳
휴
휵
휸
휼
흄
흅
흇
흉
흏
흐
흑
흒
흔
흖
흗
흘
흙
흜
흝
흞
흟
흠
흡
흢
흣
흥
흦
흨
흩
흪
흫
희
흭
흰
흳
흴
흼
흽
흿
힁
힂
힇
히
힉
힋
힌
힏
힐
힑
힒
힗
힘
힙
힚
힛
힜
힝
힞
힠
힡
힢
힣
％
##기
##업
##에
##서
##만
##큼
##도
##간
##당
##국
##영
##주
##권
##자
##였
##던
##장
##진
##흥
##공
##단
##람
##처
##럼
##저
##원
##부
##를
##P
##G
##가
##중
##안
##타
##한
##통
##일
##로
##짜
##치
##킨
##을
##태
##계
##이
##클
##럭
##노
##동
##조
##합
##총
##연
##맹
##으
##터
##적
##시
##지
##스
##들
##인
##사
##색
##병
##다
##고
##발
##탄
##체
##은
##마
##씨
##는
##청
##년
##화
##학
##소
##반
##찬
##유
##숙
##과
##A
##탈
##러
##운
##비
##세
##제
##설
##보
##호
##길
##료
##피
##헤
##아
##네
##린
##트
##신
##입
##생
##따
##i
##s
##e
##r
##S
##남
##순
##0
##3
##1
##억
##캐
##5
##7
##8
##6
##9
##절
##파
##문
##항
##대
##우
##위
##평
##관
##물
##류
##리
##규
##정
##면
##교
##해
##야
##하
##a
##t
##b
##o
##y
##회
##미
##갔
##코
##와
##어
##게
##약
##격
##식
##봉
##전
##백
##념
##품
##잣
##때
##오
##바
##상
##의
##특
##추
##모
##델
##머
##엽
##c
##h
##p
##n
##d
##춤
##거
##선
##건
##요
##앤
##몰
##m
##번
##쪽
##있
##레
##나
##룬
##질
##수
##익
##록
##북
##방
##본
##떠
##능
##니
##울
##표
##극
##워
##l
##v
##곡
##각
##먹
##할
##같
##여
##복
##변
##툴
##충
##효
##라
##4
##냉
##재
##강
##행
##티
##글
##벌
##켓
##증
##르
##며
##괴
##란
##그
##군
##완
##성
##론
##논
##손
##씬
##데
##떡
##웨
##메
##커
##즘
##양
##더
##었
##용
##술
##천
##판
##까
##육
##2
##삼
##쌈
##끼
##확
##포
##함
##차
##플
##또
##케
##날
##퓨
##종
##족
##산
##되
##련
##분
##E
##W
##O
##N
##D
##R
##큐
##멘
##곳
##g
##u
##z
##w
##직
##너
##무
##쓰
##키
##드
##현
##톨
##릭
##협
##목
##욕
##탕
##범
##갤
##암
##쏘
##철
##언
##님
##허
##법
##금
##베
##홉
##띠
##딜
##형
##침
##책
##측
##렀
##근
##예
##랑
##닭
##f
##융
##빈
##경
##폐
##크
##온
##프
##루
##층
##담
##골
##럽
##갈
##등
##칭
##벨
##편
##찼
##향
##집
##애
##냐
##슨
##받
##구
##희
##납
##묘
##박
##잼
##딸
##토
##임
##든
##디
##출
##랜
##슬
##두
##틴
##척
##른
##∼
##압
##채
##습
##했
##감
##풍
##석
##뿐
##께
##망
##민
##참
##활
##축
##실
##패
##열
##됫
##객
##독
##눔
##센
##맨
##삭
##잇
##몬
##명
##블
##염
##환
##넘
##카
##좌
##악
##랠
##륙
##굴
##줄
##려
##내
##k
##텐
##츠
##폰
##개
##속
##촌
##버
##느
##략
##쉬
##송
##배
##멸
##창
##갑
##율
##력
##급
##름
##써
##읍
##초
##쾌
##것
##끄
##된
##숨
##왜
##룸
##역
##앝
##외
##틀
##말
##난
##떨
##텔
##령
##꿀
##꾸
##취
##킹
##잔
##즉
##램
##달
##x
##광
##긍
##심
##H
##투
##쯤
##빵
##응
##못
##별
##핀
##작
##볼
##숍
##턴
##휨
##림
##음
##똥
##켜
##콩
##살
##챔
##올
##륜
##테
##텍
##꽃
##걸
##량
##농
##퍼
##딩
##굼
##잘
##렘
##쉐
##셔
##겠
##꼈
##컴
##몸
##매
##막
##렌
##즌
##꿔
##샘
##빛
##쳐
##쿠
##녀
##먼
##획
##칠
##뻔
##녁
##값
##쟁
##월
##혼
##옥
##빙
##죠
##점
##릇
##팅
##팀
##귀
##긴
##템
##페
##즈
##I
##준
##눈
##누
##빌
##j
##률
##듬
##십
##냥
##B
##T
##옴
##엔
##칙
##쿨
##겐
##졸
##폼
##황
##텀
##K
##삐
##래
##택
##덩
##례
##잡
##얄
##밉
##립
##M
##져
##답
##팟
##퐁
##렐
##혜
##접
##핑
##결
##샵
##뇨
##벗
##겨
##밀
##쁘
##L
##롱
##찰
##런
##팔
##렸
##괄
##랩
##펠
##혈
##브
##렉
##셨
##쩌
##승
##쌥
##존
##엄
##꼴
##액
##F
##V
##없
##후
##룡
##털
##웃
##았
##착
##돌
##봄
##새
##폭
##캔
##칼
##불
##줬
##닫
##릴
##넥
##훈
##험
##닝
##뢰
##Z
##훼
##섬
##끝
##흔
##킬
##봐
##놀
##놓
##C
##최
##죄
##낸
##팝
##콘
##랏
##곤
##친
##궐
##움
##켰
##알
##픈
##징
##벼
##룩
##겟
##잖
##돼
##랬
##랄
##멤
##므
##댔
##샤
##슛
##럴
##J
##빅
##검
##퀘
##딱
##쌍
##옵
##션
##홈
##렴
##웜
##견
##젤
##땟
##렇
##봇
##뭄
##샬
##봤
##잭
##휴
##킴
##빚
##흰
##셋
##랫
##뒈
##째
##혁
##땅
##몇
##숴
##랍
##쯔
##푼
##렛
##씩
##왕
##꺼
##톡
##깨
##캠
##컬
##콜
##곰
##욤
##줌
##깔
##싶
##뤄
##졌
##츄
##컨
##돈
##렁
##헌
##널
##릿
##슴
##돠
##엑
##첸
##롄
##득
##셜
##벤
##윤
##맞
##췄
##웍
##깃
##웠
##앱
##몽
##튼
##궁
##좃
##룹
##X
##짤
##빠
##히
##씀
##튜
##웁
##쇄
##짐
##균
##콤
##U
##김
##옆
##앨
##젊
##슈
##됐
##뻑
##흐
##필
##첫
##옹
##앙
##풀
##왔
##즙
##났
##쁠
##겁
##밑
##릉
##락
##밍
##싸
##썼
##댜
##셉
##셀
##섯
##잠
##뇰
##첩
##및
##럿
##Y
##끈
##뽑
##찌
##쓸
##늪
##톤
##밖
##쥴
##링
##늘
##혀
##쇠
##놨
##윰
##둥
##뒀
##둔
##짬
##뽕
##뜨
##놔
##휘
##얼
##낙
##밸
##엇
##꼽
##뉴
##춰
##숲
##쌀
##퉁
##듯
##콕
##맘
##칸
##틱
##빔
##칩
##흉
##뮤
##햄
##쇼
##헬
##꼬
##롬
##넌
##댄
##쟈
##겔
##혹
##롭
##랙
##셈
##켄
##긋
##챠
##쥐
##맛
##닉
##쨌
##닌
##숯
##뎃
##펜
##갱
##홀
##퇴
##닷
##찍
##깥
##탁
##덕
##쭐
##슐
##뜻
##앞
##꾼
##걀
##텃
##밭
##펀
##믄
##끔
##않
##팩
##낌
##웹
##뭇
##잉
##볶
##뜰
##넉
##헥
##튀
##될
##촉
##뼈
##팥
##싱
##높
##뚝
##섭
##맇
##탠
##웰
##웅
##q
##밥
##틸
##맡
##숫
##칫
##멀
##헉
##찐
##랭
##픽
##깐
##뗄
##끌
##젠
##혔
##젼
##젯
##뱌
##닐
##괜
##챤
##녕
##밎
##벽
##뱅
##퀴
##렵
##덮
##톰
##댁
##렬
##깝
##엠
##솔
##껍
##넬
##엣
##쭉
##욱
##홍
##렷
##윈
##뻥
##떼
##탐
##넹
##좋
##핵
##닛
##듣
##엿
##믹
##큘
##왑
##딘
##홰
##됨
##힌
##덧
##갯
##뱀
##쩡
##맵
##셰
##밝
##힐
##꽈
##냈
##탱
##뿡
##컷
##둘
##춘
##즐
##혐
##밧
##끗
##팼
##꿍
##찹
##톱
##걷
##엉
##뇌
##떤
##흡
##죽
##팠
##봅
##댈
##뜩
##덤
##팍
##슝
##핫
##줘
##쁜
##땐
##짓
##뿟
##팬
##벡
##넷
##룽
##롤
##쭈
##겸
##솥
##엘
##쑤
##넛
##렝
##닥
##핌
##잃
##벙
##첼
##켈
##놈
##덴
##젬
##끊
##챌
##빨
##녹
##뇽
##둑
##뷰
##춧
##읒
##훨
##붙
##낼
##껴
##뚜
##펴
##쏠
##윌
##냄
##벳
##컵
##힘
##쳅
##랐
##늑
##킷
##짱
##뭐
##뻐
##댕
##앉
##낫
##밴
##묵
##쥬
##붕
##휠
##뒤
##캉
##첨
##얏
##밤
##뿌
##좀
##굿
##탯
##짝
##툭
##샷
##댐
##꽁
##븐
##맥
##탭
##겜
##옌
##냑
##곱
##욧
##쵸
##삶
##씻
##꿈
##롯
##솦
##묻
##륵
##짖
##뎀
##앟
##셧
##샌
##낭
##튠
##촬
##펭
##귄
##쳤
##엥
##퍽
##딴
##큰
##넝
##펌
##뻘
##읽
##쑈
##붓
##숭
##윅
##폴
##핏
##꼼
##쫌
##벅
##챙
##몹
##콧
##잎
##귤
##댓
##탑
##넴
##찜
##Q
##뮴
##픔
##뿔
##땜
##넣
##줍
##앵
##돔
##멍
##삿
##찾
##꿉
##걱
##겼
##푸
##숱
##늬
##씁
##곶
##쏭
##많
##낮
##찔
##멜
##혓
##췬
##햇
##짯
##냅
##빼
##찡
##긔
##맺
##뉘
##껄
##꾀
##쁩
##됬
##덥
##젖
##묄
##솜
##쿤
##펫
##섰
##쩐
##솟
##흑
##텝
##찮
##뷔
##젔
##젓
##뀌
##팡
##랴
##턱
##앗
##믿
##뀐
##쪼
##콸
##캅
##닢
##뻤
##걍
##겦
##꼰
##쾰
##젝
##썰
##덱
##깊
##쫀
##덜
##녘
##륨
##퀸
##눠
##쌓
##룰
##퍅
##갚
##쥔
##탬
##퀄
##벰
##몫
##섮
##꾹
##캣
##얘
##쑥
##삽
##녜
##겅
##늙
##룻
##빴
##굽
##팽
##궤
##릎
##멕
##핸
##횟
##쫄
##돗
##꼭
##쪄
##쉘
##듀
##얀
##맴
##떻
##땀
##뽀
##웬
##둬
##딪
##밟
##왈
##빗
##쿼
##짙
##곈
##옐
##껀
##닦
##섹
##윗
##맸
##땡
##툼
##딧
##뮬
##앰
##됩
##싹
##눕
##팜
##엤
##깡
##윙
##쩔
##얹
##옷
##쉼
##캄
##쨩
##튄
##헨
##끓
##찝
##댑
##슷
##풋
##낍
##훌
##듭
##쉽
##뫼
##촛
##뤼
##뮈
##봣
##웸
##헐
##쿰
##렙
##둣
##슭
##곁
##꽂
##죵
##쥰
##캬
##똑
##겻
##힙
##툰
##랗
##묶
##뤽
##넨
##왓
##밋
##틈
##딕
##촨
##딨
##챗
##흠
##훤
##겹
##뛰
##샀
##갖
##팁
##펙
##팎
##얻
##뮌
##곽
##릅
##붐
##켠
##캘
##쎈
##텟
##짔
##눌
##쫓
##텅
##싯
##갠
##줴
##뜬
##쁨
##얌
##겄
##싼
##흘
##낳
##앓
##킥
##챕
##낚
##쎄
##썻
##샴
##셸
##캡
##삘
##듐
##씹
##펄
##쏙
##켸
##띔
##뱃
##늠
##궜
##쨰
##붑
##솝
##쾅
##샹
##셩
##굳
##앴
##쿄
##뜸
##죤
##땠
##뚱
##튿
##윔
##맑
##듈
##욬
##쉰
##츨
##덫
##랖
##픕
##궈
##큨
##슦
##갓
##맙
##놉
##밌
##슌
##톈
##햐
##뭉
##뎌
##뚫
##갭
##욜
##쩍
##헀
##밗
##붇
##떄
##멩
##괌
##뜯
##횡
##뵤
##빳
##흙
##욘
##늄
##킵
##뱉
##엌
##뭘
##짠
##닼
##콥
##벵
##퓰
##껭
##썸
##뻬
##넵
##븜
##큇
##쾨
##퓔
##퇘
##닙
##늕
##샐
##혒
##볍
##짚
##찢
##괭
##졍
##쓱
##벋
##샨
##녔
##눼
##븀
##몃
##콰
##딤
##퓌
##뉜
##띄
##뒬
##슘
##헸
##뒷
##웻
##깼
##슙
##늉
##싫
##녠
##껌
##챘
##맣
##씰
##댱
##킁
##믈
##챈
##엎
##핼
##늦
##왁
##쉴
##쇽
##뎅
##륭
##뵈
##컫
##썹
##췌
##탓
##솀
##껏
##듕
##숩
##컸
##셴
##뎬
##굥
##뤘
##씐
##뻗
##윽
##낀
##좆
##돕
##띵
##둠
##뀨
##폿
##닿
##웡
##뺑
##짢
##꽝
##뿜
##펑
##탤
##썽
##깽
##닮
##훗
##썬
##찿
##숑
##잽
##컥
##캇
##쮸
##훙
##쏟
##슥
##눅
##껑
##곧
##썩
##왠
##씌
##뒴
##쉔
##낄
##섀
##힝
##쾡
##줵
##멱
##돛
##싀
##팸
##튬
##잌
##빱
##캥
##컹
##빤
##츈
##폈
##칵
##쫑
##잊
##멎
##뽁
##헴
##띤
##즤
##훑
##멋
##젭
##깍
##깎
##푹
##돋
##긱
##뚯
##꼿
##딛
##귯
##츌
##읊
##쿡
##녈
##윕
##섴
##핍
##뺏
##됴
##좁
##퐝
##꿨
##듦
##샙
##섞
##럐
##믐
##숔
##뚤
##됍
##맏
##뀔
##괘
##깻
##갇
##읏
##싵
##돨
##쩸
##웩
##옘
##촐
##쫒
##쬬
##뺒
##욥
##땃
##쩨
##떳
##몄
##겉
##뛴
##엡
##푠
##랸
##쌤
##붉
##깁
##핬
##켐
##펨
##퀼
##펼
##낵
##쭁
##윳
##퀀
##놋
##뭔
##쿵
##붸
##겪
##셮
##팰
##쳔
##틋
##읕
##ㅉ
##ㅗ
##ㅈ
##뻣
##꽤
##낡
##햔
##둡
##잦
##깅
##쳬
##눙
##펍
##왱
##줏
##쨈
##찻
##ㄹ
##ㅢ
##ㅤ
##ㅂ
##ㅐ
##ㄶ
##밈
##멧
##빻
##닏
##텁
##꿋
##깜
##텡
##됏
##쨍
##쌔
##슉
##빡
##묭
##첬
##앳
##낑
##딲
##끽
##쇳
##볕
##졋
##횔
##촞
##쿈
##멈
##픠
##쑨
##펐
##쓴
##탔
##쿳
##떽
##벚
##쒜
##꺾
##꼐
##헵
##쨋
##켤
##냔
##숄
##엷
##뿍
##귈
##죡
##굉
##톄
##긁
##툐
##뗌
##옮
##쩜
##펏
##덟
##돤
##킈
##햏
##쨘
##읗
##맷
##쟎
##뎁
##뼛
##갬
##쒀
##젱
##횐
##헛
##쥠
##옳
##쳉
##뷸
##둴
##샛
##쭘
##헿
##낯
##쑹
##좐
##촘
##뗘
##츽
##먀
##엲
##륌
##겊
##춥
##탸
##튱
##빽
##뗀
##왼
##헷
##낟
##눴
##숏
##넓
##췃
##옙
##숀
##떰
##핥
##햤
##쐐
##띌
##얽
##똣
##헝
##딥
##잰
##쿱
##욋
##휩
##돟
##옛
##햅
##쎌
##삳
##볐
##윱
##좔
##퀵
##뽄
##짰
##웟
##넙
##듄
##뒹
##욌
##뭍
##텨
##셕
##닳
##홋
##먄
##읜
##쟌
##짧
##퀠
##뼘
##쬐
##팃
##훔
##낏
##삯
##푀
##됄
##륀
##ㅘ
##ㄱ
##똘
##덖
##엾
##슼
##쑵
##씸
##츰
##펩
##뱄
##췰
##쳄
##큭
##깸
##뇩
##븡
##쌌
##몆
##ㅁ
##ㅜ
##롸
##꼍
##횅
##텼
##쫘
##쫙
##쟝
##퉤
##겡
##켁
##셍
##톳
##꿘
##큅
##걔
##퀐
##멥
##뫄
##삡
##멓
##늫
##뤔
##쨉
##갸
##휀
##삤
##꺽
##탉
##굘
##얇
##깬
##똬
##닯
##겍
##굄
##뎠
##읠
##칡
##굣
##귓
##룀
##믾
##쭤
##삥
##뛸
##꿏
##꼇
##뉠
##궂
##쉈
##잴
##쟤
##곪
##궝
##벞
##톻
##쥘
##뤠
##횽
##꿰
##숟
##잤
##녑
##캴
##큔
##껫
##뵐
##똔
##뫈
##씽
##옇
##콴
##폽
##곗
##칟
##힛
##끙
##굵
##퉈
##냠
##쉑
##뎐
##톺
##쐬
##앜
##떴
##듸
##횃
##맬
##폔
##쭝
##꾜
##굶
##쪘
##쥤
##꽐
##텽
##삔
##짛
##젹
##닺
##뜀
##퍄
##쏴
##밞
##솨
##꽌
##짭
##졈
##뮨
##찧
##깟
##쳥
##퐈
##옻
##겆
##낱
##쨔
##췐
##뼉
##뺐
##뚠
##쉠
##촹
##훅
##켬
##첵
##뺨
##켙
##깠
##뺀
##뙜
##턍
##쳇
##죌
##뉼
##놎
##욀
##웤
##냣
##ㅖ
##ㄺ
##뢴
##랳
##먕
##툽
##쒸
##흴
##쯩
##뱐
##잗
##ㅏ
##ㅆ
##냡
##챨
##ㅡ
##ㅇ
##얺
##헹
##겝
##얍
##ㅋ
##ㅝ
##삑
##꼅
##릮
##텦
##슾
##뗏
##몐
##솁
##팦
##믜
##곘
##궛
##쌉
##눗
##껨
##넜
##읃
##돾
##퓸
##잿
##셥
##샅
##뾰
##윷
##힉
##꿩
##엦
##잏
##깄
##봬
##숖
##뢸
##륄
##톼
##빰
##쳣
##갛
##뱡
##갗
##ㅅ
##ㅠ
##ㄴ
##샾
##싰
##딫
##꺄
##뿓
##튤
##릳
##껜
##죈
##줫
##볓
##뀜
##쀼
##붜
##빕
##ㅃ
##ㄷ
##뉸
##뗐
##툿
##뺄
##멉
##졀
##뿅
##뤗
##뵙
##냇
##떵
##냘
##뜹
##ㅕ
##튕
##뚬
##빩
##뺡
##댠
##츤
##졔
##췍
##늴
##짼
##둉
##끕
##켕
##튐
##뷴
##룔
##챰
##짇
##얕
##촵
##쭌
##땸
##쿌
##푯
##맀
##짹
##쫠
##땄
##돚
##푝
##짊
##괸
##캎
##땋
##폄
##뷘
##믓
##뷀
##쩰
##뇬
##쉥
##귐
##깿
##찟
##꽉
##혛
##흭
##픞
##뵌
##떔
##뭅
##쩝
##땁
##햑
##쉭
##껐
##졉
##ㅙ
##챦
##틑
##긒
##퀑
##볏
##ㅊ
##섶
##뵹
##엮
##죕
##됀
##팻
##춍
##륑
##쩬
##볋
##늰
##냏
##롑
##븍
##볘
##틔
##넿
##얗
##챃
##솬
##갹
##퍈
##캈
##샥
##퓽
##칮
##큿
##쎃
##꺅
##벱
##촤
##쾀
##헙
##슁
##릊
##읎
##싈
##큥
##녖
##왐
##띨
##옭
##쏜
##꿧
##껸
##맟
##쌩
##웽
##뽐
##캤
##헠
##쯍
##켯
##뒨
##쎅
##묳
##큠
##솃
##햘
##켑
##뽈
##뉨
##꿇
##솹
##픙
##횻
##벸
##뷕
##뵨
##퉜
##풉
##퇼
##넸
##냬
##볜
##좨
##탰
##깈
##죁
##넀
##됭
##앍
##셤
##갉
##랼
##깹
##딀
##왇
##ㄻ
##륫
##ㄸ
##춈
##큪
##ㅒ
##얔
##썅
##밨
##덛
##큡
##깉
##띳
##솅
##쌕
##캿
##껬
##륰
##솽
##괼
##뺭
##홧
##훠
##룍
##ㅞ
##쟨
##섕
##솎
##궃
##팹
##읺
##뎡
##휼
##읫
##틍
##킾
##푤
##괵
##븝
##뙤
##횬
##즁
##죙
##컁
##낻
##멮
##갰
##ㅎ
##츼
##꺠
##쟐
##겋
##띈
##놜
##댙
##돎
##꺗
##룟
##뺴
##먈
##얶
##돐
##긷
##핗
##뺙
##뗑
##썖
##귁
##텹
##챵
##햬
##젆
##앆
##뵛
##뱆
##닠
##뵀
##곙
##밒
##짘
##샜
##ㄽ
##겧
##늣
##묽
##엏
##럄
##랒
##꾄
##츙
##켝
##끠
##풔
##핶
##갼
##룐
##휸
##퓟
##땍
##셌
##늅
##낰
##춉
##쟀
##뭡
##챡
##슽
##킸
##롷
##엨
##넋
##픨
##홨
##뤁
##쐉
##좡
##눟
##텬
##솓
##뫙
##쳘
##뇜
##땨
##탼
##햛
##뭣
##핳
##쿔
##떈
##삵
##룁
##엊
##괞
##쌨
##뤰
##벆
##뭏
##맢
##큽
##븅
##훕
##샫
##흣
##쥑
##댣
##꼉
##훍
##볌
##퍠
##혰
##짏
##롈
##싣
##씃
##뮐
##흄
##ㄲ
##ㅄ
##틉
##룅
##퉌
##쵼
##븨
##읭
##얜
##쫭
##쇤
##넼
##롣
##돲
##몀
##봘
##핲
##괏
##벧
##맊
##헜
##뎨
##즛
##벹
##쫍
##돡
##댖
##꾳
##뷜
##졘
##홥
##밢
##떙
##닞
##뇐
##롶
##뻡
##쇡
##쌘
##깆
##츻
##뤤
##뢍
##뛔
##떥
##젙
##챱
##섣
##렏
##낞
##퐐
##떱
##곸
##귑
##뱓
##헒
##ㅔ
##탶
##쩠
##녓
##뤌
##퀏
##댸
##넺
##귿
##튈
##솄
##갞
##굔
##쐴
##힣
##꿕
##잆
##뉵
##묾
##푶
##훵
##틤
##귡
##썌
##헣
##튭
##릐
##꽹
##괙
##꽛
##돴
##ㅌ
##쥣
##놧
##빋
##꽥
##젛
##줜
##쳡
##삒
##맽
##텄
##렜
##돣
##쌐
##닒
##쳑
##얐
##끅
##됌
##풰
##럤
##돝
##덨
##픗
##쑴
##쎆
##밪
##휙
##웝
##멻
##튽
##넽
##퀜
##븖
##몌
##듵
##컾
##쓩
##맫
##흩
##쬔
##뤨
##좇
##몪
##쉣
##띁
##뱁
##쓔
##휵
##몯
##뺌
##뮙
##쌰
##뀠
##쏀
##갘
##홤
##랆
##녂
##곌
##읖
##쵱
##켔
##녇
##푄
##휄
##뙈
##꺌
##룝
##ㅍ
##쫏
##룪
##혠
##츳
##띡
##웂
##젘
##왹
##쭙
##핡
##싴
##닪
##긘
##읂
##횩
##쏫
##홑
##멨
##늡
##흫
##칬
##뵘
##겿
##꽊
##촙
##솢
##씼
##겤
##읨
##뼌
##ㄳ
##ㅣ
##춣
##빝
##귕
##읾
##봥
##닸
##걕
##쫜
##뾱
##욍
##셑
##ㄼ
##흇
##뷩
##큉
##쯧
##꿎
##툥
##땔
##쟘
##잍
##ㅚ
##ㄵ
##젴
##쏩
##흳
##봔
##쉡
##힑
##돞
##앚
##앋
##흗
##떘
##쵠
##럇
##욿
##숡
##잨
##눞
##졓
##뚦
##욨
##뱍
##윾
##뀬
##깓
##뱈
##퉥
##캑
##늨
##먐
##꿜
##큄
##핟
##쥼
##긧
##뭋
##앖
##덞
##픘
##쑬
##햌
##맜
##쥆
##쥡
##콱
##쟉
##묫
##봙
##딓
##걲
##밷
##뇸
##뤂
##ㅓ
##씅
##뿙
##튵
##첟
##맓
##팖
##빶
##팚
##빪
##챶
##뻢
##밣
##욢
##멆
##첰
##몾
##썭
##섢
##텳
##볃
##쎥
##챯
##쑩
##톧
##츔
##덯
##엻
##봗
##읓
##굇
##띰
##봴
##씯
##뜽
##굡
##묙
##륩
##텻
##쉿
##곺
##묜
##럾
##췻
##뱔
##풩
##긕
##믕
##곯
##닡
##똠
##궷
##잩
##밦
##뀝
##곬
##푈
##섵
##홇
##릍
##똟
##솩
##휭
##멫
##춖
##렆
##쁑
##냨
##뒵
##뚧
##랃
##릏
##곕
##퇀
##칯
##퐅
##닜
##얂
##롮
##얬
##낲
##꼸
##샄
##쌧
##쩟
##혖
##덬
##옅
##닻
##솊
##핮
##봭
##텆
##굍
##뢨
##뗔
##뵜
##륻
##튁
##옜
##귱
##읳
##죔
##렺
##삣
##뱟
##눋
##햡
##왝
##넟
##칰
##섲
##쨜
##쎂
##륷
##렩
##쎤
##봰
##렫
##퍌
##샣
##뢔
##펵
##ㅟ
##컄
##횝
##셱
##읲
##덪
##왚
##끜
##멬
##슺
##눤
##쉅
##찦
##볔
##묀
##켱
##됙
##눨
##밠
##녤
##읅
##횰
##휜
##굯
##퀍
##삠
##뼐
##훝
##즹
##혬
##닽
##씪
##쵝
##댗
##곃
##폑
##뎄
##듧
##깰
##렧
##싮
##븁
##걋
##푭
##띕
##븰
##싿
##끚
##굑
##섁
##옃
##팤
##땝
##옸
##엳
##똈
##굛
##읉
##푱
##뵥
##볽
##줓
##뼙
##첥
##졁
##븉
##뜏
##퍿
##뿚
##텈
##뺠
##첪
##맠
##먁
##뻕
##뺥
##숞
##찭
##쌙
##춝
##븃
##픁
##욡
##빢
##춠
##렡
##핰
##텱
##뇔
##읆
##갃
##륳
##맍
##헼
##겴
##뢱
##밬
##앛
##늚
##봑
##탹
##핯
##컈
##햿
##냤
##콙
##뽜
##쉩
##쌞
##뎔
##앇
##돥
##햝
##룃
##먿
##윘
##옝
##춟
##맆
##윻
##쯜
##꾕
##곻
##킫
##옄
##꺙
##벘
##둿
##킄
##쟜
##쮜
##옉
##숌
##쫴
##옶
##쏵
##룦
##쬼
##븥
##읻
##힁
##뱋
##췇
##놘
##졒
##룯
##춏
##푁
##쒼
##쎔
##뼁
##뷁
##촣
##윖
##칀
##촾
##샊
##즨
##썪
##됸
##츱
##멊
##톩
##럈
##쾽
##큣
##씜
##롲
##틂
##쨥
##쇨
##춬
##듫
##쿸
##깢
##읮
##뵬
##숧
##삝
##혤
##웕
##뵝
##큾
##벖
##슶
##텂
##굅
##횄
##퓻
##쌜
##넒
##젫
##떢
##띱
##ㅛ
##릋
##쬠
##둟
##롼
##맗
##졷
##캪
##궉
##쯱
##훟
##됢
##곷
##뉩
##챸
##탘
##킅
##풂
##툇
##촥
##좽
##춪
##섨
##뜅
##쩻
##앸
##읋
##뵉
##쯕
##듲
##깞
##탲
##뎋
##껠
##솰
##뽓
##턔
##뫤
##듁
##젅
##읐
##딬
##젇
##훯
##헁
##톅
##긎
##꺘
##켭
##싑
##폳
##쭸
##묠
##곅
##깩
##즞
##컽
##럲
##겥
##틘
##뜷
##햠
##숸
##죗
##쪙
##괁
##캢
##롴
##떪
##늧
##읔
##쬘
##닾
##홓
##퍙
##놑
##첱
##맂
##킽
##옰
##꿴
##캍
##뻰
##륐
##곀
##쫗
##봏
##눝
##쾩
##횜
##랲
##묏
##쵀
##뗴
##툉
##삾
##웱
##좝
##솤
##깋
##짦
##좠
##욯
##돘
##휫
##싷
##왘
##섐
##쏨
##퓬
##솸
##릃
##줅
##췹
##힢
##땉
##팂
##홐
##픤
##튝
##셖
##듥
##쥥
##줒
##뺍
##냧
##픝
##틊
##푣
##즥
##탴
##믏
##뭬
##긑
##앎
##엙
##늗
##쾃
##룓
##괗
##컶
##귝
##됮
##뿠
##핧
##퉷
##럊
##녗
##뎍
##샼
##뇝
##퓐
##긤
##넗
##밼
##뜌
##죰
##뫠
##퐂
##옿
##쳰
##쎴
##햣
##쎠
##뭭
##섦
##똴
##괨
##퍭
##혅
##뮥
##룄
##븟
##얩
##뚮
##쐙
##뽟
##뻼
##빧
##쿹
##찣
##귬
##좍
##댇
##쏸
##뮹
##늇
##냊
##앃
##칳
##빟
##긺
##쟙
##먺
##턀
##텣
##빆
##녬
##갅
##쐈
##겯
##끎
##쎕
##쎾
##걑
##걹
##딯
##잋
##뭥
##믱
##칲
##흽
##륾
##쩄
##챂
##롓
##릂
##웄
##쾍
##볻
##찯
##텰
##짆
##녅
##탙
##뤈
##둗
##뺘
##콛
##꽅
##궄
##뻄
##녿
##줗
##쌋
##톔
##녛
##렿
##랓
##얙
##텉
##뒜
##쬈
##왯
##츕
##힜
##덷
##옢
##쯪
##듳
##졩
##뺕
##쨎
##볫
##잲
##껼
##슮
##뾔
##쿽
##밲
##춸
##쪾
##벜
##렣
##럶
##퀭
##뼼
##쉕
##돳
##캭
##낧
##낐
##슊
##읰
##꾾
##윚
##샦
##홱
##뱝
##멌
##쳎
##읶
##썷
##콮
##짴
##춯
##롁
##뜁
##젒
##봎
##옦
##첢
##튲
##퍐
##옼
##뭎
##닰
##몳
##빣
##췩
##퍾
##쐌
##붚
##쨀
##훡
##넖
##읹
##껃
##츩
##럕
##븩
##꿝
##뒁
##핦
##봊
##햊
##몼
##풓
##룜
##듷
##듼
##럅
##쀏
##딍
##푿
##댤
##욷
##젷
##웓
##햙
##얒
##굻
##딭
##쵹
##톶
##톷
##봠
##죱
##쮠
##빏
##튓
##꼔
##욛
##뫁
##섧
##걩
##뽥
##퇸
##끋
##ㅀ
##렦
##햭
##툠
##맿
##쒹
##궹
##쨴
##볗
##늩
##뎟
##믌
##췸
##댼
##싐
##웒
##뙨
##왴
##쒔
##캰
##췽
##뇻
##껙
##옞
##첞
##켚
##떺
##훋
##긐
##챀
##줁
##삻
##춴
##죨
##냌
##쑝
##캆
##뗠
##탣
##괂
##튻
##둇
##궙
##ㅑ
##맄
##롐
##턕
##썡
##웣
##욹
##쥭
##겂
##삷
##뗬
##밻
##퀌
##쩧
##줸
##왬
##텩
##뼜
##찎
##둰
##쭛
##욈
##껩
##잧
##좼
##돸
##츅
##탏
##셒
##둺
##랰
##놯
##쇅
##뻠
##똧
##븓
##섿
##긇
##엃
##횹
##첮
##셐
##낛
##겫
##벛
##걜
##팉
##챳
##찓
##숬
##쩼
##묑
##륍
##텥
##뿨
##쀠
##쀄
##쌱
##덍
##윢
##즡
##앐
##숼
##쒠
##딋
##낔
##텋
##뫃
##짒
##섺
##죻
##윛
##뮺
##욣
##흅
##겈
##맻
##핱
##툄
##홗
##좟
##궅
##샆
##웈
##붵
##갶
##뚣
##벍
##쥻
##툹
##탃
##쁓
##뿗
##뷹
##먚
##춢
##맚
##몲
##뵭
##탇
##촑
##쁕
##뾹
##얓
##뷷
##푧
##꺃
##밶
##뺵
##뢀
##삲
##쏱
##픅
##켵
##젧
##궇
##쩅
##맔
##옽
##쇻
##륏
##뗻
##띧
##띃
##갆
##꿱
##졽
##엯
##엱
##엵
##뗣
##톃
##풄
##룺
##촢
##뻚
##첲
##봆
##몉
##촏
##섡
##풏
##쓚
##퓳
##톁
##엗
##졎
##옺
##폅
##댝
##긊
##뿑
##랔
##뎊
##틐
##쥽
##붏
##괍
##믁
##뤅
##귘
##밂
##롹
##몿
##멭
##볖
##겇
##켇
##깾
##싄
##댛
##쨚
##겢
##쎼
##쳠
##갋
##쵤
##엪
##듨
##웑
##얖
##섟
##넫
##귭
##튔
##럗
##잳
##샂
##줭
##볒
##뚥
##걺
##툏
##삜
##뢉
##궘
##샡
##풆
##컼
##뗗
##잪
##줃
##꿸
##갴
##뎈
##붋
##뽝
##죅
##엫
##쀵
##닊
##짅
##멂
##핣
##뻿
##흨
##킼
##촠
##홞
##걿
##뚭
##턩
##팏
##줕
##셁
##앢
##뤀
##댰
##쬭
##놌
##뭴
##팈
##읁
##핞
##혿
##햺
##줋
##턜
##얭
##껚
##뀽
##짗
##졨
##웧
##춌
##놰
##텢
##돰
##웥
##췼
##봍
##넚
##푕
##욺
##홛
##킐
##찶
##훓
##뫅
##믑
##섥
##뢭
##렼
##뼝
##띀
##똗
##믨
##꾿
##춀
##앻
##퐄
##탞
##떋
##싢
##늖
##뿛
##쁫
##홴
##쯥
##밫
##폘
##랕
##좈
##낢
##뽂
##뿝
##껒
##깂
##뽱
##툘
##눳
##옾
##럂
##궩
##펕
##뤙
##뒸
##떫
##핓
##럯
##웇
##곖
##쵮
##곲
##읪
##잫
##륲
##뇹
##쥇
##읩
##럖
##롵
##휳
##꾈
##넎
##쇰
##줠
##옯
##섷
##졇
##셫
##븿
##쨓
##줼
##엍
##뫨
##걈
##옧
##귺
##짋
##칞
##렂
##믖
##쐰
##쪠
##몁
##픐
##괋
##봨
##겓
##칻
##젋
##붼
##깵
##쨖
##쩽
##뀿
##ㄿ
##멵
##휑
##맅
##갿
##멷
##덚
##뿤
##늎
##줚
##굗
##깤
##쏼
##힞
##뻴
##뼞
##묬
##텪
##뻞
##텸
##뾲
##엸
##묚
##쑍
##봀
##몮
##뽚
##봃
##뻒
##얆
##쟛
##긩
##왰
##픓
##헰
##샠
##뗳
##뀍
##랅
##륿
##꽜
##햎
##휏
##춋
##붭
##뻉
##븬
##놩
##쟸
##졕
##퇗
##빘
##섏
##엢
##혂
##짫
##벉
##옫
##쎳
##웋
##괃
##젶
##뮝
##갂
##쩃
##뗍
##놕
##죶
##썜
##궆
##둦
##흼
##똏
##켮
##늤
##쎵
##얫
##줎
##팒
##쬮
##읈
##젰
##읿
##콬
##띾
##쟄
##닟
##탗
##핝
##씡
##딹
##릵
##즴
##듰
##뀪
##틷
##땽
##쳴
##쇱
##붘
##썀
##붖
##궶
##궫
##궻
##랤
##궢
##쎀
##잚
##놥
##죾
##꾁
##릣
##멑
##밐
##퐛
##쁀
##걌
##뭈
##쌴
##꿂
##짞
##쇘
##뻇
##틜
##쐇
##륮
##릾
##졐
##샇
##춛
##헑
##킌
##쮤
##앏
##쉪
##괬
##꿑
##젲
##뎝
##뀢
##옂
##츸
##콫
##앀
##깧
##쟆
##섾
##쨕
##좜
##쎙
##찏
##힡
##듟
##럑
##뼸
##샽
##끛
##쿜
##맒
##듩
##퉐
##읯
##륒
##릘
##럻
##몈
##꺵
##덭
##랋
##뭊
##퐑
##솧
##왤
##쎘
##딮
##왉
##띙
##퇄
##궬
##쌸
##뮷
##뷱
##뤵
##뜍
##괠
##껵
##뗜
##싲
##벝
##넡
##떗
##싔
##읙
##뺃
##췜
##졶
##웦
##퓜
##됻
##렄
##듴
##쁌
##댘
##핕
##엜
##끱
##벐
##뮉
##궨
##귔
##쁴
##푴
##쩎
##릡
##홯
##덙
##훚
##핪
##돷
##컺
##틥
##뼵
##핃
##긂
##싨
##촟
##뷤
##놬
##뇄
##슫
##뾆
##굦
##끵
##똽
##젏
##둧
##펔
##넑
##쯘
##딈
##톹
##쭹
##쵁
##찤
##땛
##샒
##싟
##쌂
##앧
##붰
##뻭
##읇
##뫟
##챽
##팢
##룱
##핒
##돵
##킝
##넠
##눚
##쨤
##쓿
##붗
##믺
##챻
##뿕
##뿏
##쳧
##솑
##멏
##뾻
##옲
##뱛
##뱜
##퍘
##뚢
##턓
##쁋
##첯
##먏
##몱
##뺟
##뵫
##뮽
##릠
##앺
##슿
##웴
##뱨
##븸
##캌
##똡
##뒥
##쮓
##랟
##핻
##윸
##핛
##뚸
##덈
##떎
##뗵
##럳
##쭊
##힠
##껰
##롖
##팓
##뻙
##묷
##욭
##뒇
##왭
##쓉
##넞
##뇓
##끾
##퉅
##젞
##킻
##듪
##룴
##됱
##톕
##랮
##갵
##켘
##숳
##틏
##쿗
##닶
##홣
##쁭
##쵭
##욮
##싁
##쭷
##듡
##뚞
##쟠
##봌
##홬
##벴
##꾐
##풒
##턷
##웉
##탾
##섄
##훽
##쫐
##떯
##뷇
##뒝
##젣
##셯
##댚
##뀀
##싕
##뛈
##쥪
##뱩
##뽍
##윶
##먜
##릔
##떷
##핢
##붱
##릁
##팣
##욳
##햫
##륶
##둞
##쉛
##뼱
##좦
##쁶
##쭚
##몔
##졛
##섻
##븗
##탆
##졺
##뤟
##닲
##햋
##닂
##뺩
##돧
##턤
##졑
##뺸
##푷
##홝
##샏
##렾
##걵
##줆
##콀
##뚀
##겣
##윥
##듶
##탒
##듮
##됑
##쿙
##뿰
##됂
##밯
##퀙
##졊
##죚
##먑
##묺
##묹
##왷
##욉
##칢
##떦
##걐
##둻
##쟴
##쯋
##뀩
##렞
##긿
##잕
##퀩
##쇐
##땊
##찴
##뿞
##붛
##첦
##쌵
##쎨
##윲
##엺
##퓴
##촎
##쪈
##쳌
##겕
##냙
##샸
##폇
##젃
##몊
##끆
##첡
##몷
##뽛
##욙
##쳕
##뵷
##챣
##쀿
##춭
##뼢
##뵲
##먖
##뱦
##툝
##춗
##죥
##뻟
##튳
##퓵
##돜
##웗
##틇
##혭
##멛
##섈
##뤡
##놃
##죘
##똫
##퉹
##욼
##꼄
##끨
##핤
##섩
##봫
##믇
##튑
##앾
##멐
##뵶
##볹
##똩
##뺦
##뽒
##튦
##먘
##먆
##뵸
##봈
##묦
##솒
##첧
##멽
##뽇
##펁
##벯
##뵻
##엋
##덝
##땇
##뉽
##밮
##뭃
##챷
##촓
##뗡
##됓
##둄
##괻
##욝
##찪
##씄
##솏
##먠
##븕
##잛
##덣
##꿃
##곆
##돱
##팊
##섳
##쵄
##겾
##딳
##턁
##땈
##뿒
##퉀
##벎
##볎
##츎
##셙
##춨
##됺
##뻦
##쓜
##싽
##쏝
##볷
##릌
##곦
##쏄
##윜
##엶
##쭟
##쥿
##뼥
##뉈
##햟
##푨
##뚁
##뜳
##힗
##끟
##폡
##뽖
##쯬
##슸
##좭
##뢈
##륡
##짪
##퓩
##쉞
##쟇
##뿎
##괒
##믽
##밓
##벭
##꿁
##떧
##놏
##뎇
##핚
##짂
##듹
##뎆
##갷
##흟
##뷧
##핽
##걳
##쎗
##윬
##쒰
##쉜
##ㄾ
##퐉
##죳
##늼
##뛟
##앩
##탖
##윀
##쫃
##뽭
##펲
##쩖
##둙
##쬡
##뎢
##듑
##끐
##욪
##흪
##퐌
##뤩
##넁
##긶
##뼤
##펬
##붠
##먽
##잀
##꺇
##럔
##뎻
##낪
##밊
##찄
##쮹
##왙
##갊
##듓
##뉏
##릯
##혺
##벑
##빹
##쳫
##뻨
##탺
##찺
##뱞
##얎
##톮
##똝
##퀫
##뀡
##헺
##꼣
##찱
##얃
##앹
##벩
##씍
##꼮
##앦
##곂
##썐
##싦
##쐑
##꼳
##톸
##둳
##씠
##뾸
##굷
##됣
##쯑
##닖
##뎗
##븧
##몡
##릚
##쉄
##렶
##픜
##괕
##뢶
##긻
##륽
##픟
##샑
##훐
##쁙
##쨨
##윴
##췁
##젗
##냸
##젉
##졧
##씔
##뙿
##쨏
##룳
##싞
##궡
##뚷
##믗
##쯰
##먍
##뻪
##빺
##춮
##턐
##뭌
##뵴
##쌚
##숝
##챹
##샪
##뎙
##촕
##띹
##됰
##갽
##돇
##왛
##뜵
##쾁
##쯉
##뉙
##롔
##퉆
##첄
##쇝
##뺼
##죴
##찫
##뺛
##젻
##뚶
##볾
##죢
##챲
##푾
##첣
##끤
##릷
##뉤
##굸
##밳
##슳
##젌
##툑
##윯
##혩
##꽇
##읬
##뛱
##덄
##읚
##놄
##눃
##꿓
##졏
##웚
##턑
##옱
##봁
##멹
##뷵
##붃
##뗝
##붆
##팗
##폯
##룥
##뱏
##펗
##뱕
##뚕
##퐃
##맋
##횸
##틧
##꺢
##뙇
##툵
##꿐
##뎜
##흿
##숮
##꺀
##핁
##쾐
##곋
##벒
##벓
##붒
##뷼
##뼠
##뵳
##춦
##퍚
##뻖
##햚
##뫌
##놂
##먅
##촊
##폂
##돊
##촖
##톲
##댶
##뱒
##튶
##옡
##섘
##웊
##튯
##쪗
##귢
##몋
##폦
##랎
##녋
##늒
##졂
##껗
##텊
##듛
##촷
##뗶
##몍
##귚
##뉫
##쿯
##텧
##렪
##햰
##럠
##쀽
##쉇
##볠
##컅
##섫
##붂
##틕
##뇍
##뵁
##챺
##뤕
##댢
##즑
##솂
##늿
##윋
##긌
##휋
##웖
##붅
##첳
##빜
##닑
##쩒
##낅
##폣
##뎦
##긓
##켛
##뗫
##툻
##슆
##윁
##뻛
##빥
##쟑
##붍
##쁎
##봂
##쁖
##럸
##뗞
##삱
##풐
##엹
##푩
##켞
##긲
##뷫
##갨
##틼
##믛
##뇠
##읤
##줮
##긄
##홭
##짷
##횢
##륺
##옪
##잓
##졳
##맕
##뱽
##녯
##쑷
##땵
##됟
##굫
##핔
##짲
##쒯
##쟥
##챴
##싻
##엩
##잟
##뤳
##흏
##젾
##댬
##덼
##룑
##콋
##줐
##럆
##콉
##옟
##싩
##닍
##닣
##챁
##얠
##좧
##졗
##씥
##웳
##냹
##좰
##쁰
##뚵
##궭
##왶
##깣
##펰
##럏
##쨱
##쳈
##혱
##힂
##긏
##겷
##옏
##삮
##윧
##쉙
##멒
##찲
##잢
##뱚
##졾
##욚
##덠
##턒
##첚
##촒
##뭀
##벾
##쇌
##갌
##뵼
##뉀
##퉨
##럷
##럙
##햩
##욓
##훰
##왧
##뷃
##둚
##갣
##훳
##쬷
##홅
##쌻
##풇
##숕
##뱎
##냫
##쳗
##횓
##쟟
##뮳
##빷
##밙
##뽘
##뽔
##벇
##똙
##폃
##툩
##푫
##묱
##뫘
##쭞
##젿
##툡
##눁
##뿉
##쟗
##뼡
##턌
##묟
##욟
##똛
##싾
##펋
##썮
##묩
##멁
##븞
##폮
##됼
##롟
##랝
##쯀
##쟕
##씤
##됵
##뤬
##줔
##닁
##붊
##퍗
##쪌
##귪
##궸
##궼
##잂
##꾱
##뀟
##퍤
##컀
##슂
##걉
##췔
##띿
##챇
##팭
##퀧
##롳
##깶
##궪
##뚂
##곴
##붹
##뿁
##턈
##뛹
##퐠
##븠
##궞
##낤
##켣
##뜼
##죷
##쐽
##쩩
##윟
##윝
##껶
##왂
##젺
##쓖
##죸
##켳
##땳
##쪤
##욽
##좄
##놤
##눵
##쵣
##퇬
##럌
##괔
##쟞
##숚
##뎰
##뮻
##뮧
##푥
##쟔
##욦
##츆
##숁
##댥
##뿋
##륝
##촍
##뚳
##룛
##휝
##볅
##뎧
##덌
##댯
##쬽
##뫽
##꺕
##벟
##쫣
##똵
##뽧
##꽑
##폕
##풕
##졵
##뢕
##턹
##빮
##툸
##뚆
##툔
##몭
##칱
##캋
##퐞
##똰
##첻
##녝
##귖
##럒
##퇫
##뢳
##햻
##셝
##쇗
##젚
##뀸
##걊
##끍
##떅
##쓬
##퓅
##댫
##츀
##뭟
##얾
##탵
##쫔
##셛
##뭠
##얿
##됈
##뺝
##뮶
##뿘
##쁐
##뎒
##윮
##첛
##팛
##툓
##촡
##냽
##귾
##굲
##폥
##쁅
##롘
##먗
##쾻
##짡
##붝
##챊
##켷
##즣
##릫
##큮
##퓹
##뙵
##으로
##에서
##했다
##니다
있다
##하는
##하고
##이다
20
##지만
##습니다
##었다
있는
##00
##들이
##에게
##한다
##라고
##까지
##면서
##다는
##다고
대한
지난
201
##에는
##적으로
##적인
##들은
##부터
것으로
##하게
것이
##하기
위해
때문
19
말했다
사람
##라는
10
##으며
##는데
우리
##들의
##하지
한국
대해
경우
##였다
한다
미국
사용
정부
아니
##았다
그러
##에서는
문제
##리고
##통령
##기를
서울
때문에
200
대통령
다른
##들을
자신
##에도
##하여
##이나
같은
##자는
이후
생각
함께
##대로
##리는
통해
그는
##입니다
아이
가능
##하다
##보다
하는
했다
들어
중국
밝혔
이상
따라
대표
##리를
것은
##사를
12
것을
##지는
##된다
시작
가장
의원
##되는
##위원
이번
##장을
##장은
것이다
##하면
관련
관계
일본
밝혔다
지역
11
##도록
##졌다
이어
##기에
국민
##하며
##해야
그러나
하지만
##스트
##자가
있습니다
사실
만들
현재
##됐다
경찰
##기도
##레이
##지를
많은
필요
##지고
정도
상황
##장이
하나
##서는
모두
##하면서
세계
##거나
##성이
##합니다
있어
사이
이라고
이날
하고
##기가
##르면
##회의
경제
##들에게
##처럼
그녀
##력을
##er
시간
국가
않는
등을
북한
15
##했습니다
##이고
지난해
없다
다시
##만원
그리고
##억원
##있는
위한
30
후보
최근
지원
##해서
모든
된다
진행
##성을
따르면
##리가
##으나
없는
특히
이런
프로
##되고
결과
동안
##되어
##사가
##이라
당시
정치
지금
있다고
다음
이용
18
##000
##으면
그런
보고
##정을
##사는
##시아
##이는
##되었다
설명
있었
기업
사업
##상을
##시간
##리아
사건
있었다
##an
기록
그의
##0년
또한
##화를
국내
이유
##이라고
##기는
모습
아니라
##로운
계획
사회
##들과
공격
##에서도
알려
##자를
일부
주장
많이
##주의
연구
올해
##on
##자의
##가는
이미
피해
조사
발생
##비스
발표
나타
##렇게
##인이
##했다고
있다는
자신의
최고
16
포함
##학교
처음
예정
13
##in
않고
##었습니다
사진
내용
교육
##이었다
금융
경기
상태
확인
나오
##이트
게임
14
추가
삼성
##기로
이에
시장
결정
계속
않은
##다가
##ar
나는
여러
있을
라고
##이라는
전문
##위원회
국회
##이며
17
##했던
보여
운영
않았
25
##리스
그것
떨어
수도
기술
##인다
여성
이를
##이지
##기업
##력이
돌아
##이스
##운데
지적
##위를
이름
##명이
관계자는
제공
##했고
기준
새로운
이라
##부는
##렸다
요구
인터
##명을
개발
영국
증가
##치를
공개
##어나
정보
##하였다
##사의
민주
기자
##라도
##겠다
선수
받아
등의
##8년
판매
##도를
실제
오후
대상
##의를
평가
##랜드
##인은
정책
##시키
가운데
중요
검찰
##지가
국제
##부분
##5년
전체
##식을
너무
##2년
그래
##은행
일반
만들어
##났다
좋은
직접
수준
##4년
##원이
최대
영향
##3년
100
##안을
학생
아닌
##대를
다양
199
참여
##7년
##금을
##마트
##리에
이야
##주는
가족
##동을
결국
##대표
있고
##니까
##어서
부분
##9년
어떤
있으며
##원은
선거
어려
##or
오늘
##씨는
역시
서비스
투자
전망
##인의
가격
강조
##6년
##장의
##도가
학교
##전히
##하려
50
대학
것이라고
##되지
##원을
##en
##었고
##가지
분석
##스터
않았다
##1년
##스를
해당
바로
##수는
##st
##드는
발견
제품
영화
##요일
예상
등이
사고
높은
##도로
##인을
보인다
때문이다
한편
##는다
대부분
##라이
##했지만
매우
##왔다
24
##스는
안전
##누리
##인데
마음
오전
받고
물론
등장
##르는
##장에서
아무
같이
추진
아직
21
방문
나온
##점을
상당
열린
새누리
없이
##었던
있지만
찾아
현대
보면
의미
##머니
이는
어떻
##회를
##나라
방송
장관
효과
22
##수를
##원의
개인
새누리당
의해
방법
자체
##수가
강화
##치는
##시에
경쟁
준비
사망
과정
또는
유지
##장에
어떻게
##자로
##전을
마련
##들도
##제를
다양한
되는
혐의
주요
책임
성공
##이가
##동안
소비
감독
##명의
##al
관심
이제
노동
기대
기존
전국
##스의
##사에
상대
거의
##전에
23
##at
##있다
##진다
것도
##한다고
문화
중심
어느
##사업
스마트
만큼
##료를
##인지
크게
우려
시즌
##선을
##그램
관리
구성
40
구조
##없이
##스가
있도록
이렇게
스타
##어요
마지
자동
되었다
않을
자유
지방
##개월
정상
설명했다
##과의
도시
##스템
에서
##기관
가지고
어린
co
있는데
##겠다는
##권을
만나
규모
다만
이라며
의견
##한다는
존재
외국
선택
인정
##자들이
활동
올라
마지막
친구
라는
##세를
우리는
주민
유럽
역할
##부를
##물을
드러
##트를
해외
기간
##마다
좋아
확대
##국의
##스로
하루
4월
공동
앞서
##드를
##시는
적용
내가
##지도
생산
달러
해결
프랑
27
더욱
비판
6월
##정부
앞으로
##와의
26
인해
3월
이것
특별
##상이
상승
##서를
##로는
28
전에
##le
청와
부산
기본
지나
##므로
작품
지속
의원은
각각
대신
시민
이러
가능성이
하지
판단
그녀는
##민주
##하지만
위원
##음을
##연구
이동
##보고
사람이
##업체
##하였
7월
5월
##겠다고
##대의
##이를
##대에
##하자
차량
오는
현지
참석
대한민
거래
##했으며
문제가
보도
고려
제기
##센터
것입니다
과거
##ic
##리의
##이지만
9월
논란
##원에
러시아
등에
국정
12월
설치
받은
독일
사랑
가지
번째
##로부터
중앙
활용
나라
사람들이
##정이
위치
환경
비롯
29
건강
인간
10월
##기의
내려
도움
방식
생활
전했다
위험
되어
##업을
##이터
무엇
모습을
않아
얼마
지난달
198
예정이다
않는다
##대가
1월
##에선
##문을
언론
8월
성장
##원에서
대통령은
##어난
##계를
##교육
##지에
알고
원내
##자인
명의
이뤄
##자들은
내년
##했을
미래
인사
아버
제작
정말
##부가
정부가
공식
평균
은행
##감을
산업
개선
기능
달리
##밖에
지도
프로그램
차지
##리지
지지
전투
출신
##연합
반대
이해
##들에
이러한
그렇
##하기로
조금
##거리
##가를
제대로
인터넷
강조했다
면서
여행
됐다
논의
반면
일이
##화가
요청
넘어
수사
##했다는
대비
먼저
##라인
주변
예산
플레이
있던
출시
##하거나
##시장
보호
##el
##도의
고객
언급
000
어렵
업체
제외
##하던
가까
##지역
##되었
아니다
정부는
영향을
비해
덧붙
2월
받았
정도로
##사와
민주당
으로
##는지
##파트
전쟁
부족
도입
##르게
##스타
집중
부담
비교
##치가
전문가
등으로
이전
##르고
11월
받았다
##그룹
이루
조직
##it
시스템
적극
합의
여기
##려고
##원으로
만에
한다는
##인트
그가
실시
목표
##달러
자기
##자와
##지지
확보
유명
여전히
##단체
##위에
##장과
##하도록
##근혜
계약
보내
외교
따른
그런데
##부의
##디오
만든
불가
##일부터
그녀의
그래서
재판
애플
업무
감소
##하다고
기관
알려졌다
##릭터
사무
건설
노력
정신
##다면
비슷
시행
스마트폰
강력
오른
##정한
청와대
##이기
##이드
결혼
대응
자신이
##더라도
1년
##조사
없었다
##부에
##도는
대통령이
##냈다
자리
살아
##하는데
해야
당신
말을
소속
##으니
서로
##구를
전략
역사
##이어
가진
##리즈
있기
캐릭터
##하다는
현실
배우
##es
##소를
인천
갖고
박근혜
움직
##하기도
중요한
자연
##이자
합니다
##가가
경찰은
##정보
회사
60
대변
라이
덧붙였다
경험
##씨가
관광
##격을
##장으로
분야
롯데
##세요
##스크
처리
31
그대로
바람
직원
불법
2012년
##수의
자동차
##이션
##느냐
문제를
경영
주장했다
##비를
##어를
나서
그렇게
얼굴
마이
불구
##린다
##만큼
하면
##경제
2013년
공무
신청
모델
최종
없어
##회에서
프랑스
##일에
카드
작은
##위는
어머니
우선
항공
대선
##정은
##임을
변호
범죄
LG
아래
대표는
미국의
필요한
우리가
분위
실제로
국민의
##나는
의혹
표현
국방
정부의
가입
수출
과정에서
##리카
##치고
주택
##같은
##관리
##니아
가져
음악
충분
부모
최초
##제로
##사로
검토
##일까지
보다
##am
##일을
못한
있게
##되면서
되고
##히려
혐의로
2014년
##적이
##제가
##스러
2010년
##자들의
제주
##ou
역할을
비용
##통신
일을
오히려
이야기
한다고
##중에
대한민국
##지로
어디
잘못
2011년
##정책
##으로는
##회가
상품
않다
##대한
##지의
형태
원내대표
##위가
##is
##두고
계획이다
발전
두고
##시켜
##점이
제시
##문에
공급
신고
##없는
개정
보험
##등학교
SK
발언
##개의
제1
연결
##아서
정확
아파트
핵심
##프트
##전자
관한
##되면
글로
제한
그룹
##물이
누구
운동
##차를
하락
대통령의
##il
##단을
##과는
회복
사라
회의
지적했다
##정치
공연
못하고
대해서는
##오는
##상의
##행을
대상으로
197
##스럽
뉴스
스트
많다
행정
인도
개최
통합
##리로
해도
대형
##주고
그냥
토론
##쳤다
##상에
지급
##년간
이와
야당
참가
##re
돈을
대출
전해
방침
##관계
공공
##어가
##기술
주인
프리
한번
그동안
사실을
입장
이사
우리나라
치료
최소
남아
의료
##식이
##서도
경우가
거부
전혀
같다
목소
##대는
##he
##보다는
##번째
없다고
소개
동시에
TV
시절
##산업
담당
##었지만
것에
바이
들어가
방향
반응
높아
투표
##갔다
각종
해서
##성은
##율이
밝혀
일으
매출
고용
영업
것이라는
남북
수입
선정
통과
##관은
국회의
민간
##20
나가
점을
주로
이상의
사실상
##으로써
그림
마을
2015년
힘들
보유
##금융
여자
행동
나온다
스스로
시간이
##회는
행사
사람은
있어서
어린이
##개발
지하
사례
과학
통신
그들은
##량이
70
단체
##내는
##성에
##정에
내부
##동산
##같이
##시설
중단
광주
##학생
대구
##우는
##관이
##네요
##문화
##됩니다
##움을
당국
이들은
출연
변경
글로벌
##기간
전달
##운드
불과
##어도
씨는
테러
리그
따라서
35
변화
##세가
##리와
벌어
없다는
공간
진출
수익
##였던
##거래
##회에
사태
관련해
받는
제안
타이
훈련
아프
레이
##성과
제출
구매
2008년
##자에게
##어야
여론
일단
안정
이유로
구속
##기와
정당
군사
작년
기억
주목
##로서
여야
2009년
우승
나타났다
##에서의
판결
이라는
심각
##적을
이하
건물
분명
시리즈
언제
인터뷰
##되었습니다
젊은
내놓
위협
##림픽
2000
작업
불구하고
1일
기다
쉽게
##레스
그것은
중소
오바
대책
실패
##규모
입장을
줄어
##바일
교수
그를
##리그
브라
자주
본격
상대로
##건을
받을
가능한
##구가
협력
오바마
설립
##드로
뉴욕
##약을
##보는
##자에
대체
총선
개혁
##랐다
2년
부정
비행
##ol
##더니
##개를
적이
더불
시도
나와
##안이
##as
##명으로
##했는데
교통
##드의
##량을
못했다
제가
##분기
중심으로
엄청
중인
인상
기념
희망
##재인
부동산
##지면서
오래
도로
세월
이들
반영
라며
##et
더불어
때는
상황에서
느낌
아주
북한의
순간
전환
비난
##었는데
##지원
##실을
##군의
서울시
아시아
##인으로
온라인
구체
도착
500
##수록
청소
보는
##명은
감사
달라
##ing
하는데
2차
기반
수행
주는
아침
단순
##인가
유일
이끌
하며
지켜
##ed
인물
##시키는
##으면서
전화
모양
##리기
개의
나오는
##스와
##디어
전통
알아
노래
파악
##법을
놓고
어려운
근로
차례
대화
위반
추정
모바일
종합
이탈
##30
32
196
##일이
경기도
남편
##고를
##위로
업계
인근
##ac
시설
##안에
처음으로
전자
##과를
안에
##해도
대전
##심을
장애
##ion
여름
완전히
##받은
엄마
##스코
##만을
##이에
힘을
##라마
등록
하다
##려는
##품을
거쳐
청년
3일
##BS
아마
브랜드
문제는
##보험
##분을
2016년
문재인
재정
##50
기소
##무를
교수는
이벤
훨씬
시험
##관을
공무원
##기고
연속
수가
제2
##경찰
독립
##체를
##금이
장기
일자
##구의
상당히
##시를
운전
저는
원래
##준다
##만에
소득
인수
이루어
##드가
얼마나
장면
되면
특정
1만
##라면
것처럼
휴대
국무
촬영
마찬
80
##경을
전날
보니
##운동
수밖에
확정
##간의
##상으로
##하겠다
##트는
금지
사람들은
마찬가지
##ro
##도에
##해주
내용을
이란
##포츠
##회담
##BC
남성
약속
에너
남자
##선거
##씨의
##산을
크리스
수는
전기
##으로부터
지금까지
##비아
##롭게
자료
시간을
포인트
선발
비슷한
com
##단이
##투자
특수
이곳
없고
이름을
##감이
##상은
이른
보이는
스페
##지와
##겼다
바뀌
말이
##트가
##사에서
##가의
월드
5일
것과
##겠지만
능력
##생활
증거
카메
선보
축구
배치
주인공
체포
타고
외국인
새정치
##사일
혁신
##분이
##시킨
지정
위해서
##대학
가는
##했으나
정권
##수로
낮은
제조
향후
##전이
시작했다
보통
##겠습니다
없을
확실
선고
구글
##ad
kr
10일
##조차
나머
평화
##반기
##트로
##섰다
구축
마무
다니
둘러
데이터
선언
당선
측은
3년
##어로
아내
##우스
##시켰
기록했다
##만이
상황이
기획
##단의
이유는
단계
##아가
보였다
##당이
수요
15일
정보를
인한
소송
접근
##률이
검찰은
근무
주식
##스러운
##분에
갈등
##진을
##전에서
대중
음식
강력한
만드는
##세대
회장
##이의
페이스
행복
소유
##인과
##차가
앞두고
불안
폭발
동물
모르
도움이
얘기
왼쪽
가정
조성
##문이
##점에서
느끼
되지
##위의
구입
비중
고민
##성화
##증권
주도
불러
의원이
##단은
필요가
당연
##서에
##함을
코스
들고
있었던
##으로서
항상
나왔다
좋다
##율을
일어나
##군이
세월호
베이
##드시
방어
처벌
##과학
2일
사이에
##10
20일
##되기
4일
강한
##방송
##자기
##주를
##당한
다음과
전시
의사
##하려는
300
했지만
스토
##만원을
통일
호텔
##구는
하기
2017년
그리
발사
##위한
##비가
관심을
촉구
##이크
##스에
신용
공화
등은
##경기
36
##연금
보수
##보면
의견을
차단
중이다
##0년대
##ri
일정
가능하다
졸업
안보
##소가
인식
자신을
무기
전반
직후
7일
홍보
요즘
기준으로
신뢰
자세
##ul
수상
강남
동일
##ch
예술
##당은
##트의
##율은
##되며
해석
##체가
14일
자녀
특징
포함한
공정
명이
참고
혹은
아들
2007년
대변인은
그들의
##퓨터
##주택
정의
##계가
##리한
##니스
지키
주의
허용
8일
##었을
현장
보이
유통
사는
##호를
##TV
##하겠다는
##군은
##부와
##우고
16일
있지
불가능
투입
하면서
늘어
피해를
45
9일
스킬
사용하는
초반
중국의
12일
비롯한
##점으로
##나가
우주
수있는
다르
반드시
규제
않으면
끌어
그리스
보도했다
추천
말한다
##형을
11일
##선이
##주시
결과를
##국이
무슨
슈퍼
블랙
##증을
##로를
통한
##대책
빠져
근거
##계의
뛰어
##소득
6일
13일
초기
우리의
##해를
27일
여기에
##내고
일본의
##리오
##한다면
지구
조정
못하는
메시
##만의
##신을
30일
주고
##지어
북한이
공천
25일
##역을
바꾸
전망이다
17일
상황을
트위
##웠다
##소에
18일
아이폰
의심
계열
28일
KT
##요일에
동료
##차례
멤버
22일
##회사
후반
1000
24일
신규
조건
##리어
사용할
##아야
26일
23일
제도
밖에
살해
하이
33
측면
##억원을
파괴
대기업
국립
##프로
##인들이
수술
중간
##이란
이야기를
마무리
##라며
협의
나왔
##별로
떠나
최고의
부인
##하겠다고
강원
##보니
21일
기초
주문
##시가
이탈리아
##당의
19일
정치적
##사고
복지
위에
##km
경남
영상
고위
사진을
아름
중에
프로젝
##질을
만약
컴퓨터
##플레이
법률
##한테
유엔
희생
##격이
출마
고통
##ot
밝히
공유
시청
장관은
##이라도
##까지는
소재
후에
사회적
1차
드라마
194
왔다
##진이
방안을
수석
중소기업
자리를
넘는
한반
하여
메르
반발
신경
최저
절반
34
예방
청소년
전세
비밀
새로
##사회
보안
##us
아니냐
##성의
29일
경고
포기
##텐츠
통화
##만한
##개혁
지배
##러스
##구요
나머지
많아
##제는
##환경
설정
대법
절대
##럼프
##명에
혼자
##았던
회원
##력은
필요하다
##려면
그것을
스포츠
##이로
##성도
위해서는
겨울
이달
근처
##이익
##청은
##수한
##적이고
없습니다
바다
발생한
##놓고
조합
##지방
런던
한국의
소녀
진짜
##국은
##받는
앞에서
시리아
##시의
그녀가
작성
연기
저녁
승리
이것은
살인
서비스를
이용해
##om
대부분의
##항을
클럽
논란이
##조를
갤럭
빨리
##계에
나타나
현지시간
제재
성능
##지게
##ay
인권
##평가
걱정
바라
나오고
매년
##에게는
제거
떨어진
90
##복지
나무
수용
##학년
주말
화장
보건
##론을
195
2018년
##씨를
말씀
조치
그래도
손을
감염
##에만
디자인
##중앙
##이버
충분히
##카드
사상
##시킬
발표했다
##지기
오른쪽
##이면
사람을
##ig
애니
관련된
##자들을
트럼프
헌법
##선의
아르
##계획
##시고
##서비스
점에서
사전
##스럽게
갑자기
##해진
삼성전
이때
##지면
재미
##학과
혜택
IS
관측
##들어
사과
걸쳐
트위터
##피언
검사
##른다
##았습니다
않습니다
갤럭시
##시오
원칙
집행
이슬
가슴
38
매일
##트에
##워크
가까운
##안전
##실에서
##만으로
국토
때까지
##원과
##항공
자금
충돌
##들로
확산
10년
외부
자체가
올림픽
눈에
시각
##리며
빠른
심지어
문서
카메라
##un
출발
##제의
##화에
데이
올려
위안
홈페
규정
다소
소환
아예
소방
방식으로
바탕
실험
5년
전용
##이기도
쓰는
##id
이익
보장
속에
경찰에
감안
열고
채용
비상
##점은
연합
나선
기여
늘어나
대표가
보이고
관심이
취업
##도시
##본부
선생
무시
##00만
##ur
위치한
교체
##간다
비롯해
형성
열어
의무
하늘
총리
반복
##티브
노조
##점에
종교
##회견
##리에서
##대에서
맞춰
유치
연방
보여주
##대학교
##다운
부여
##보를
##아요
발매
##자들에게
2013
아버지
##화된
책임을
저희
체험
##문은
##단에
사건을
대북
활동을
조사를
대규모
자본
임명
정리
##식으로
##와는
그들이
##이블
있다면
보조
##나마
표시
챔피언
무료
전년
속에서
배경
명령
달성
전면
##주가
불편
##안은
전부
##종의
예비
##하려고
자랑
수정
사람의
집에
37
##였습니다
##었다고
그러면서
완성
압박
끝나
##하나
##이라면
차별
##력과
혐의를
적절
##전의
##으므로
맞아
##구에
##어진
밝힌
소설
##더라
영어
의한
어제
완전
유저
도움을
미리
동의
이슬람
높다
1천
##활동
임대
##지에서
쏟아
임시
##당을
건축
일어
꾸준
데뷔
##크로
##소는
##os
##졌습니다
작가
아울
게다가
이스
거주
마법
##방을
앞에
회장은
체결
원하는
먹고
병원
센터
기자회견
마치
##권의
점검
진술
##분의
##면을
심각한
나누
##란드
스테
오랜
다이
메이
생존
##전문
##조정
##었으며
사실이
예상된다
유사
이르
생각합니다
아이템
인기
##히는
집단
그때
분류
성폭
##짜리
받지
알려진
##되었고
했던
##했기
지휘
싶은
##게임
방침이다
하나의
사업을
패배
듣고
다가
경우도
지금은
있는지
선물
연장
하였다
소년
##량은
끝에
##상에서
긍정
##스토
48
남은
##함으로써
기회를
아동
2006년
저지
##가족
나올
살펴
##가고
미사일
긴급
도전
작용
효과를
##구조
잡아
적은
##어버
강제
철저
전해졌다
만족
##주로
여의
##았고
길을
기타
공격을
##력의
만난
응답
굉장
##제에
연락
##노동
평소
##석을
##나무
##조건
시작한
임금
##쪽으로
생각한다
마찬가지로
##소에서
##장관
##드리
##로그
채권
##마저
##렀다
##시키고
울산
55
대해서
유로
지원을
디자
누가
##치로
종류
##병원
생각이
아울러
징역
에너지
태양
##자금
효과가
김영
이번에
##세기
빠르게
달려
##습니까
##어는
검색
제일
##건설
##에있는
##많은
돌려
그것이
##적이다
##음에도
##nd
형사
유명한
정규
물리
##표를
제3
명예
셈이다
하게
안타
##받고
39
##듯이
그럼
자살
있었고
##마을
세종
##다른
금리
수도권
##리트
##관에서
##심히
##질이
지역의
##서가
##하라
부상
##ra
고속
문을
개념
후보는
충격
IT
발표한
##님이
차이가
노출
취임
활성화
자산
재산
##목을
분노
##트워크
엄청난
##하였고
페이스북
조선
##im
##생을
##여서
##공사
##직을
점점
금액
청구
고양
42
안철
41
##키는
전남
실질
따로
최고위원
가서
##자들
이명
구간
대회
##ow
##TA
##거운
커피
가르
##호가
홍콩
마음을
월드컵
##시켰다
상징
대해서도
맞는
도와
열리는
받아들
##비는
PC
관광객
국회에서
수수
##과정
공항
진입
회담
이웃
김정은
법무
가로
했는데
알려져
잠시
계획을
복귀
##차는
##진은
시대
##권이
바닥
분양
있으면
유리
때마다
##치지
까지
아베
나중에
수십
앨범
1인
기능을
##도와
세의
호주
매각
폐지
44
출전
1조
분리
여부를
##인에
입고
민족
정확한
대기
제외한
##회의에서
게시
2012
##답니다
사람들
바탕으로
##대출
정기
글을
단일
방안
##류를
##위원장
가득
생각을
예측
경찰이
성과
총리는
부탁
##였고
2000년
이외
##대회
비서
##교통
뒤에
문제에
직업
##선에
설계
##력으로
1억
##유의
기술을
사건이
변호사
인하
3개
수많은
교과
모습이
##00만원
홈페이지
사퇴
##화의
간단
##NS
##협회
덕분에
보기
##공항
이같이
집에서
경우에는
##력에
등에서
##뿐만
연간
협상
오르
지시
2015
이로
사장
굉장히
흔들
추가로
##라스
찾는
개입
답변
이벤트
증권
어렵다
유출
국회의원
##제품
후보가
죽음
취소
예를
주차
##문의
대한민국의
오픈
경기를
열심히
향해
조작
##나다
안철수
##든지
연출
정도의
무너
##판을
누군
43
상임
놀라
프리미
화재
기사
##수수
##카오
아니고
of
새벽
2016
단지
크다
내용이
카페
머리
소통
조치를
않도록
삼성전자
##nn
들었다
버스
##길을
47
##ent
브라질
##었으나
##트남
2005년
##실에
요금
영역
##명과
##av
##리게
202
##졌고
운행
52
알게
20대
##체의
아프리카
당초
##량의
겁니다
##치의
kst
여기서
말고
##식에
비디오
생긴
상대적으로
한반도
##받을
직장
##정으로
##기구
##보호
정책을
전문가들은
##주년
콘텐츠
46
당장
##버스
않게
##국을
통제
세금
##군을
##싱턴
도쿄
고급
##부터는
검은
벗어나
##급을
##바로
##가로
##감독
무장
지속적으로
규모의
몸을
사기
##단계
옮겨
##처를
종료
##률을
##케팅
##범죄
##ag
##어의
사람들을
소비자
한나라
최초로
EU
가까이
지역에서
이들이
가능성을
들여
보스
내고
##리스트
운용
디지
소리
그린
수비
쇼핑
##정도
##프를
좋아하는
##ie
올랐다
##션을
있어야
##기준
하자
##되었으며
##수도
친박
##서의
##개로
##부모
##까요
느껴
##적으로는
관계를
성격
##기지
시위
혼란
##성장
법안
4년
##이즈
동영
기울
역대
확장
권한
인구
##and
##석이
##리면
##라우
쉽지
##대와
년에
##od
##됐다고
살고
더불어민주
방법을
##립니다
##관광
뜻을
안내
적극적으로
했습니다
##후보
전북
65
##관의
지역에
##다니
이재
영웅
쓰고
##바이
있었지만
합류
힘든
약간
동원
완료
##라엘
##동의
좋지
거듭
지불
##라의
##ir
##하이
담배
나이
채택
##향을
1위
##가에
곳이
##000억원
스위
인공
제품을
네이버
목적
줄어들
파견
피부
193
##협의
이래
경북
##사건
##11
집을
먹는
##시스템
##르크
##TE
머물
이라크
##전은
위로
49
못해
##란다
##률은
##민주연합
거론
유일한
베트남
교사
해주
호소
수백
레벨
보이지
부회
편의
개편
2만
CE
완화
##이던
법정
있으나
부과
완벽
상담
사람들의
##40
##th
##키로
특허
이스라엘
이다
150
활약
가격이
우려가
##말로
나섰다
경우는
승객
출범
##mm
거짓
꾸준히
##명한
창업
##ia
펼쳐
##스티
##십시오
상황이다
유도
상위
##수사
75
할머니
일은
선진
장비
##랍니다
사법
##제도
나를
##중한
##하다가
##소로
등과
이내
##면서도
##신이
새정치민주연합
상황에
보낸
##메이션
워싱턴
쓰러
일자리
파트
도망
걸어
리더
떨어져
탑재
악화
특별한
##법에
##국민
##계는
뿐만
서민
있음을
##라가
묘사
하나로
이명박
화면
##난다
##동이
할인
##권에
전력
최대한
김정
물러
공포
접촉
##세로
##치게
발행
한미
최초의
##지자
출판
흐름
##op
평가를
##가락
현금
##발을
다루
대로
연계
여의도
유니
점이
아니면
##시면
두려
51
공사
소프트
##추고
내세
상당한
스타일
잇따
영국의
이처럼
획득
무역
연설
31일
사이트
##이었던
##액은
대우
##화는
경기에서
장착
라인
##자치
##정의
없지만
인터뷰에서
##스에서
폭행
능력을
분명히
로마
브리
무엇보다
the
실종
##자동
문제로
모아
##실이
##사인
감독은
##소의
만한
차원에서
##ers
상태에서
##타를
##함이
##음이
본인
불리는
지하철
나의
##나게
괜찮
난민
##임이
생각해
##의원
위기
집계
눈을
##하니
그나마
##것도
싸움
진보
##선은
구체적인
##부로
대통령과
고정
식품
본다
2014
이같은
##드에
폐쇄
##향이
##em
했다고
##제한
유닛
##호는
부르
얻을
##관에
SNS
스페인
크로
표준
앉아
목숨
##간에
씨가
당연히
연말
편집
##스탄
잡고
##특별
가계
지상
필수
디지털
대사
했고
##재를
만들고
바꿔
식으로
데려
##받아
##시코
##국에
##텔레
자율
파일
##iv
작업을
수원
2004년
됩니다
곳에
단독
##있게
##용을
00
못할
가을
공부
자리에서
단속
이른바
이틀
비정
돌파
##함에
무게
##크를
캠페
과정을
선임
##공단
##발전
저렴
질병
##리다
스크
##인들은
사이의
가치
분위기
결승
마케팅
무려
이상이
넣어
재무
내에서
##00여
##80
블루
깊은
아무리
해소
이유가
캐나다
사람들에게
환자
그녀를
보상
이들의
선출
기존의
##드와
동생
56
전화를
현행
나눠
부분이
효율
##법이
심리
##학을
2019년
##전거
##있었습니다
호남
개성
##카이
성적
게임을
##인들의
의원의
##프라
##나이
대표적인
주지
설득
##통합
계산
국민의당
생명
애니메이션
st
치료를
##승을
##곳에
합병
##웨어
공직
있다며
입은
54
##위원회는
말한
미니
기업의
##수에
##미를
명확
부문
비판했다
조언
착용
아니냐는
##ut
늘어난
인기를
##금리
##뮤니
그만
상호
##고가
##개가
##아버
철도
MS
원내대표는
##체는
실적
선호
많았다
무엇을
자원
##라이나
##회의를
말하는
##팀은
##식품
##된다고
KBS
극복
시내
##결과
이것이
돌아가
클린
국정원
##구나
위원장은
상태다
복잡
##상태
상장
##시로
포함해
이제는
로봇
##전화
##ec
야구
이전에
대답
정상회담
싶다
##금은
질문에
삭제
사항
53
##지요
미술
터키
곳은
미국과
있으니
이건
4대
필리
별로
IP
파티
##진의
탈출
노력을
드러났다
이중
자료를
승리를
KB
가수
외에
프레
소식
법적
축소
주력
창출
##경영
데미
##구역
사용자가
##용으로
보인
##이와
기부
시기
##유가
이민
아는
가게
##등급
제목
##훈련
가능성도
##봤다
아쉬
6개월
클래
화학
종종
감시
아무런
##000만원
##달라고
##시마
모르는
192
조종
아닙
엘리
계약을
##고는
##려서
때도
서울대
##분께
##텔레콤
낮아
해양
##물의
##사들이
네트워크
##세의
##마자
##로가
부채
해군
##시험
##피스
폭탄
근본
상관
시장에
즉시
##었기
##각을
##심이
에어
않지만
##레이드
cnn
파이
인용
##동에
당부
카운
내일
##해온
고등학교
##수석
연금
대화를
##세에
김종
##조합
회장이
거기
신설
##리면서
라디오
몰아
피해자
##연구원
연주
수준의
높이
##마스
이게
##하면서도
##랫폼
##혔다
미디어
제공하는
##더라구요
고발
아빠
##전으로
적발
초대
보여주는
내에
자격
곳에서
추락
막기
수집
부실
외에도
##상황
##시즌
같습니다
형태로
##화와
##라운드
은퇴
수사를
스피
이미지
##건이
심사
##ell
죽은
가면
##책을
스파
##되자
마감
모집
대폭
##리티
##리포
4개
것이었다
외환
대리
의식
미국이
##됐습니다
운영하는
오브
생각하는
##지법
분쟁
##시스
영입
치열
채널
노인
결코
일에
테스트
내린
끝난
다운
##ill
##cm
57
부처
##보가
A씨는
##구로
있었는데
결정을
수준으로
중에서
단순히
공산
##세는
##og
##님의
이슈
##하라고
##드에서
간의
등도
##었다는
##임스
##모를
과도
모여
그에
사이에서
부장
시장에서
패턴
문학
10시
##로의
인생
연습
##실험
##사무
출입
확인할
입을
조지
정부와
실행
##ak
##스팅
짧은
자전거
내다
창조
##사이트
59
배제
있어요
##어져
방해
##상품
요리
부사
붙잡
##ab
##중인
특성
배출
##무성
북한은
삶을
세워
물을
블로그
입주
더불어민주당
##있을
보관
##주일
총재
##총리
메르스
##사람
따뜻
와서
싶어
흘러
##증이
아직도
한정
##물로
말에
진단
for
관련한
아름다운
계기로
화려
사우
양국
유죄
내용의
일각
5개
목표로
패션
거리
##유를
##라서
##로드
##포를
폭력
지자
축하
##데이트
##um
않았다고
##보기
유권
안에서
한화
2개
카카오
##기기
개별
##오고
먹을
in
이상을
시장의
통상
64
기상
##형이
결과가
준다
##ap
시작된
프로그램을
변화를
취약
기계
않았지만
마침
항의
아이들이
이름이
##수와
압도
멕시코
선박
신체
야권
가해
##드러
상태로
신속
##자도
2002년
원작
받게
구분
충남
경선
분석했다
건너
##이라며
대처
대학교
일반적으로
##거든
재개
##치에
##론이
##격한
지식
갔다
전개
##ov
이용한
##60
2천
##공업
##화점
비교적
방사
##미가
로스
일어난
거대한
미국에서
##지검
적지
바람에
##씨와
##됐고
##복을
##조원
것인지
만들기
담은
실현
부활
대결
행위
공감
##연을
주거
어울
##용이
2003년
도발
##지며
몬스터
##화에서
원자
##류가
노무
##직원
올린
플랫폼
##이너
##돼야
남부
된다는
2011
CC
공중
##체육
초등학교
현재의
들어서
191
뛰어난
58
식당
김성
##ard
다행
2017
듯한
01
##차에
쓰레
점차
부진
추적
방향으로
고소
##액을
훌륭
파트너
##임금
어려워
커뮤니
이행
책을
99
잠재
두산
##는가
취재
접수
급증
주소
미국은
말했습니다
댓글
드래
잘못된
길이
취급
##곳에서
교황
무조건
업데이트
##위에서
##아의
##협력
##국가
##ew
##억원으로
안드로
동반
혜택을
조기
청문
##계약
가고
공약
관람
후속
스코
미세
##았지만
##였지만
##전쟁
CEO
최신
여당
##하고자
동부
불가피
시장이
##자산
물어
스탠
개방
늘었다
자극
탓에
손해
##공원
충북
장난
##장애
용의
##하려면
반응을
##이상
##우가
얻어
est
강하게
월에
최악
정작
여겨
마리
##쪽에
##망을
비가
당내
방지
##스테
다녀
어려움을
저장
동맹
요구하는
##기까지
들어간
돈이
어깨
상반기
##웨이
맞추
국가의
올리
하반기
SK텔레콤
관객
##기자
##축은행
않기
##면에
나름
사고가
인간의
그려
9시
##oc
빼앗
가량
중요하다
포르
##법은
목소리를
##안의
의견이
결의
종목
우수
입학
개월
##다시
집으로
02
받는다
당신이
사용자
##군에
교환
##이사
그만큼
내용은
애초
##하지는
결합
소련
##됐던
파워
##께서
##ation
직전
##봐야
아이를
이집
날아
경비
증가했다
##70
##단으로
##액이
정식
비대
현재는
몇몇
시장을
FTA
##줬다
법인
명칭
##리케
여성이
당신은
##화로
##주기
디스
사용한
##12
##억달러
비례
아닐
재료
##터를
수색
부분을
##제와
침해
당국은
##한데
가끔
텔레
발휘
손에
에피
마지막으로
사이버
##분간
##상과
붕괴
석유
클린턴
##트와
바르
쪽으로
중국이
##야말로
신한
현재까지
받아들이
수업
등장하는
오프
실무
에이
경계
##전략
주최
시장은
타이틀
스티
##연구소
공을
##업계
머리를
아닌가
예고
풀이
##ue
##자원
나갈
##방에
예약
올렸다
말해
조용
##성으로
##15
시스템을
지분
##차로
MBC
##주에
나쁜
##조가
개막
##투표
베이징
##물에
##자리
힘이
내는
민주주의
치명
학부모
##트에서
성인
세계에서
##트리
##만은
그에게
정체
##청이
점은
승인
입법
의존
갖춘
##된다는
활발
행동을
3만
120
대표의
다르게
반대로
집권
##져서
데이비
매달
St
##즈를
성폭행
방영
소리를
신문
의미가
점유
경제적
지연
없애
멀리
생겨
현장에서
한때
성과를
##해왔다
달하는
발굴
##억원의
훼손
##버그
것이란
질문
합리
것이며
일제
##해졌다
매매
##령을
편이다
##독교
일상
##끄러
목적으로
의혹을
국방부
말할
김씨는
##건의
보급
도서
시사
얼굴을
넘게
##움이
인민
중동
당사
소셜
눈이
이주
판결을
홈런
환영
중국은
학생들이
이용할
##실로
대단
사드
##ce
번역
궁금
겪고
정비
만들었다
마친
지출
번의
공화당
조절
##처리
AI
보완
마음이
대학생
시작으로
언어
##명했다
참고로
03
위안부
##가와
##측은
주장을
##서에서
##일러
않았습니다
지적이
없기
아니지만
뒤를
작동
휴대폰
되는데
거두
새롭게
바란다
다음달
네덜
모두가
초청
사용하여
##디아
넘겨
붉은
##하고있다
적합
부대
통해서
유력
차기
새정치연합
부품
##원들이
중반
부족한
##세계
400
수영
자리에
##받았다
그렇지
안팎
1위를
문자
##즈는
풀어
오랫
##영화
감정
수천
##문학
몰려
도달
##역에서
##고속
반박
출석
수치
##스카
이름으로
##술을
메뉴
마르
기록을
둘러싼
통보
도중
아닙니다
##기록
없어서
기회
캠프
곧바로
목숨을
뮤지
모니
차를
떠올
기록한
후원
퇴직
지역을
같아요
내렸다
재판부는
##해주는
##놓은
임신
##행이
##도에서
개봉
62
탑승
이승
85
내내
의지를
서울중앙
공모
얻은
합동
##위기
자치
##골을
##터리
##리포니아
##양을
##식은
##슨은
인증
검증
bl
##선으로
과연
1회
해킹
향상
ch
전직
밀어
##안보
##브리
##조직
##선수
##올림픽
것이고
골프
가스
##해보
달아
세부
##검사
AP
##아이
구성된
김무성
##니는
##번호
에피소
뒤집
건의
추구
수록
##인에게
3개월
확실히
##나와
##감한
사건에
##단과
시점
##니어
말합니다
김현
기업이
싱글
아우
여성의
계좌
##힌다
##일랜드
육군
##관과
초과
가상
적어도
##체에
고향
##끼리
경상
수학
##가능
어떠
##내기
##일은
회장의
법원
항목
##석은
대만
이후로
마크
##피아
2010
택시
##말을
캘리포니아
##ine
탄생
윈도
정착
한나라당
최소한
##나의
아기
##조사를
##000만
즐길
풍부
##워서
##매매
결제
##았을
우크
마약
##조의
기획재
며칠
##하였으며
긴장
필리핀
진정
##국제
##차의
09
사냥
된다고
##식의
비중이
##즈의
오늘날
##재판
##히고
통계
CJ
컬러
##19
##ev
이어질
##ter
가격은
위의
##예요
예전
63
워낙
아니라고
보지
66
난이
이론
알렉
이끌어
3차
##였으며
원인
의도
##법인
이정
학습
공통
강요
의뢰
거기에
했으나
의결
들이
메인
소화
차이
점도
지명
안드로이드
##관으로
메시지를
발달
플로
검찰이
발언을
30분
##미터
프로젝트
윌리
간담
##패를
##방이
##물은
##가구
인지
하던
##렸고
우크라이나
단말
냈다
##연히
허위
촉구했다
가동
하나는
구제
저항
어린이집
요구했다
##시대
##시다
##았는데
##줍니다
##사항
권력
서서
이유를
##활동을
대상이
올라가
뒤로
노무현
공공기관
수립
##르트
가구
오랫동안
방법으로
##생산
목소리가
본격적으로
증언
파리
마이클
##000원
##고기
찬성
실천
않는다는
장애인
직면
##공개
기독교
손님
즉각
##에게도
참석한
이혼
부담을
원을
기자회견을
행사를
##예술
의미를
##냐고
##조선
조각
##라를
##이니
일찍
누구나
190
##평양
너무나
다섯
한국은
극단
72
##ob
총괄
보입니다
일시
적절한
절차를
재건
의사를
없게
질환
일방
본인이
주재
##거든요
##행위
##만명
동네
10여
레드
##부에서
##형의
차지했다
남겨
이모
만들어진
분위기를
부분은
체계
##실은
입니다
사령
깨끗
끌고
기재
##시티
마음에
영업이익
등급
하드
부터
나설
비용을
영양
본격적인
##통을
논쟁
2배
반도
##해가
##지구
공장
넣고
##블릿
데이비드
마치고
국민이
남녀
가야
맞서
##EC
대다
기름
보냈
##마를
##류의
##청에
피고
해제
전후
엔진
점이다
감옥
김대
생태
생각하고
아이가
전설
관계가
연예
옆에
유발
##판에
데다
취득
##한국
새누리당은
상상
##졌다고
그럴
사실은
##권은
명을
납치
유기
농업
제외하고
후보를
나아가
천안
광역
발생하는
일하는
시원
편성
않았고
##나요
현역
##ey
LTE
어찌
##경이
##직한
총리가
백악
##국에서
교육을
섭취
봉사
##ht
##하라는
케이
##IA
위키
시간에
##료가
출산
무릎
부상을
옷을
##관계를
일반적인
연령
밖으로
규칙
살짝
##란히
자세한
찾을
##신의
비록
매입
생활을
사건의
조사됐다
방문해
##했다가
그게
일요일
좋을
성명
##크는
밝혔습니다
미치는
al
여론조사
타격
##르기
오토
투수
하나가
가리
대책을
김모
아무도
이적
삶의
굳이
대해선
매장
핵실험
떠오
거절
범행
사무총
무관
화이트
변화가
시달
방법이
95
##코리아
##었어요
업무를
기본적으로
기원
미친
##모델
오리
모으
충청
##달을
##대상
##받지
2001년
##탄을
##심의
##크가
이후에
기아
##이야
독자
답했다
##무원
##ha
대립
때부터
없었던
해안
##호선
둘째
##스턴
진화
기온
공략
##져야
동일한
올랐
오염
소형
지원하는
##되었다고
장관이
##색을
신분
고대
##군요
끝까지
고등
측정
물질
##프는
해상
##비로
내리
능력이
##스키
##번에
##여행
그러한
미스터
발동
나오지
담긴
##았다고
종로
전주
##비의
가치가
##운영
강원도
점령
##리도
대통령을
당일
갤럭시S
호흡
문의
05
많고
맞이
실업
전부터
올해는
보여준다
피해가
벌금
##줘야
평가했다
##등록
##당에
브리핑
성남
맞은
결과에
이름은
평양
##PC
서부
막을
##났습니다
조심
##하기에
전망했다
작곡
팀의
##담을
게이
다음날
빠진
사건은
소송을
되기
##버린
드라이
믿고
피의
평범
##층의
충분한
##시와
부담이
##네시아
##건으로
입증
##체스터
부적
추측
하더라도
밀려
인사를
규모가
##진흥
##려야
1시간
모른다
기회가
쉬운
늘고
##너스
##자고
위하여
출신의
떨어지는
서버
##장도
내지
메모
목격
##기능
##심한
맡고
평창
포켓
##종을
##미는
형제
주가
제정
음식을
고령
##질환
부부
다르다
##시키기
##공을
##art
회의를
진영
고려해
원전
2시
맡은
아카
고교
연구원은
그저
무한
##등을
##설을
금감
태블릿
##all
##if
수능
그럼에도
되돌
적극적인
선생님
수리
The
##병을
연봉
최악의
##해질
##포인트
6시
느낄
##자들과
바랍니다
증명
진정한
여객
정부에
##프가
면세
드러나
가치를
벌이고
꺼내
검찰에
67
이미지를
더민주
3D
인력
아이돌
경매
##먼트
찾은
나아
##은행은
시는
아웃
##호의
##달라
##하시
개인정보
벌써
윌리엄
##되기도
##소송
##ip
필요하다고
1개
오스트
폐기
시나
##됐지만
박정
발생할
##하기를
협박
이들을
그걸
곳으로
##키스탄
30대
##낸다
사장은
##씨에게
부총
했다는
한국인
비즈
최선을
탈락
미군
국민연금
스토리
않다는
다수
고속도로
입찰
누리
##집을
들어가는
달러를
가격을
프리미엄
경험을
말도
보유하고
체육
주장하는
보냈다
심장
로켓
11시
토대로
IC
시범
구현
##위원회가
않아도
유입
참여한
넓은
교도
해당하는
3천
포착
##크의
##쇼핑
##와서
주어
##25
##산이
전작
##OS
방식을
리버
속도
스웨
입원
의회
산하
지진
06
##해양
갈수록
유튜
한마
##우를
기반으로
유일하게
##했는지
정확히
08
만남
생성
##판이
영토
이르는
동기
막아
보유한
이기
만화
##가격
##치기
합격
비정규
68
##주민
##해지고
소식을
##산물
마스터
장악
징계
61
간호
##시민
경기가
팀이
카드를
##르의
지닌
##지사
것보다
무서
커지고
무상
적을
인기가
키워
태어
투쟁
신흥
##렸습니다
확인됐다
흡수
장소
세대
##사령
업그
붙어
##문제
움직임
##연맹
스튜
##고에
모니터
관찰
##무역
얘기를
##사태
알리
부작
동성
되면서
##는데요
위기에
마주
이자
북미
##국으로
##사들은
##위와
##학적
##경은
뭔가
어른
##공간
트리
수요가
히로
물가
개헌
메이저
##됐다는
겨냥
걸려
서명
숨진
세상을
실망
증가한
음주
위원장
한일
되었고
중학교
CN
끝내
김태
흔히
일이다
##주세요
독특
커뮤니티
느낌이
감독이
단기
차지하는
대륙
없으며
음성
특검
##마가
##마의
때문입니다
##동생
연극
플레이어
라이브
소모
재벌
##되어야
##분야
##에게서
상무
##SA
##실한
겨우
##때문에
페이
대량
심한
인도네시아
##졌지만
##호텔
비싼
##ED
##비용
##ang
##화하는
77
여부
이번에는
원유
##니가
응급
가깝
서초
##온다
##가스
이메
싸우
노트
줄어든
개통
##소속
평생
것이라
존중
##셔서
상업
못한다
회사의
유승
##지수
##16
토요일
이야기가
이종
지지를
씨의
알파
한국에
앞둔
뉴스1
##트라
대거
3대
동양
설명이다
어려울
못하게
육성
나섰
목록
##스케
##평을
몸에
복합
##즈가
##아시아
본래
동작
잠수
노사
##시장에서
##타임
아시
무리
썼다
실내
사례가
8시
금요일
찾기
07
##산의
##행정
앞으로도
위에서
##비에
노선
##일로
접속
##러리
한달
술을
7시
##하기는
투명
근접
외교부
계속해서
결론
목표를
전원
##기사
조금씩
형태의
##역에
부딪
5천
투자를
관여
널리
않는다고
##기획
대외
미칠
Ch
기후
##겠느냐
##살을
맞춤
그와
##졌다는
현상
주주
##월드
##베이
후보의
##하신
모자
최우
##지않
예산을
하겠다
선두
당한
보육
받아야
건조
보아
##ula
아들이
69
IM
##사이
##고한
말로
법을
박사
뿐이다
정지
황금
2020년
지금도
주장이
당의
크루
##플러
역사를
순매
##까지도
보존
어떠한
##서울
##지인
충격을
이동통신
청원
##방의
##체로
##자료
맞게
생기
##대비
##사진
가짜
입장이다
04
당부했다
관련이
##였으나
73
##여야
다니는
동해
20년
정해
끔찍
속도를
##18
작품을
##일의
코스피
시가
##광역
사용하고
운동을
맨체스터
##팀이
국경
##아웃
전형
##션이
살아남
빨간
##평균
##전과
##재가
회계
강경
등장한
##래도
직무
자금을
##위원회를
지나치게
무대
때가
아이디
떨어졌다
타임
##졌으며
봐도
아니라는
특이
녹색
미국에
팀을
##조는
##르지
성추
제도를
##미널
근육
현대차
##군과
부당
나도
76
소요
잇따라
아일랜드
아니었다
간부
##국과
##외로
불을
##적은
74
##토록
##감은
##종합
##결을
봐야
국세
상처
##포르
보일
10대
##여명이
##구에서
급여
대하여
아메
6개
##시한
##비서
있었다고
CCTV
초래
250
훌륭한
일종의
##경쟁
미드
실시간
##치와
특유의
출근
휴대전화
시급
만날
드래곤
기준을
편안
정무
올바
변신
정치권
표기
##판매
아랍
북부
바른
플래
##가루
이익을
개설
여행을
사람도
치러
와이
##대문
크고
##으니까
수면
##법으로
가능성은
들어오
드는
스케
##로로
무력
결과는
##14
네덜란드
명백
##틀랜드
대법원
느낀
충전
##켰다
민생
지금의
상태가
태어난
##느라
훈련을
##ik
이어지는
스트레
##들로부터
진행된
정황
서해
##비와
##들이다
분들이
##자동차
담아
페르
가속
맞지
##였다고
경찰의
시티
##단지
포항
하나를
경험이
##FA
##림을
느꼈
회사는
로버
모임
신동
임원
최강
1분기
어쩔
##목으로
천연
무인
측이
##밀한
##철도
##부채
##kg
부분에
하니
##ep
현상이
정도가
다름
우울
그레이
##타로
손가락
무죄
일부는
아무것도
식사
유튜브
착수
전공
사람에게
신임
##bs
뮤지컬
form
싱가
무사
노후
변동
재난
그랬
득점
성향
영상을
분열
연휴
말은
인종
88
##서로
유족
작전
주었다
##업에
분위기가
가질
처음에는
##DP
##노총
케이블
항소
##였는데
마이크로
84
물건
한은
한글
##13
미세먼
3시
포켓몬
##락을
발생했다
##이어서
##선에서
디스플레이
최근에는
불이
##파가
##부장
협상을
않을까
##a는
부르는
태풍
대표와
한강
부각
매력
##라리
2억
불거
결정했다
##면으로
본인의
유용
음반
비정규직
외무
수수료
의하면
귀국
심의
않다고
일부를
동남
그들을
싫어
##비전
공개했다
빌려
찍어
철저히
포스코
위험한
안심
부패
제임스
##주면
##으려
##스트를
다리
유전
##미의
차가
##테인
위험이
조사에
일본은
콘서
##하더라도
##소프트
2위
동영상
##식에서
추모
줄었다
##기만
##능력
별도의
응원
맞고
기술이
익숙
지역은
냄새
박물
아이들
찍은
##에다
전세계
입장이
사랑을
풀이된다
구멍
회의에서
걸린
1명
가볍
가벼
신호
이상으로
사회의
##격히
불만을
어쩌
5시
세력
그렇다고
국가대표
##공화
오래된
##ong
나쁘
생물
쓰레기
유동
##영업
##준비
발의
병원에서
준비를
교회
들어갔다
##ry
##일보
보증
10만
무소속
##렸던
##해요
그간
##데이
현장에
대체로
##례를
본회의
해고
##북도
이끄
##위원장은
승용
심판
용산
잃은
버튼
요소
자신들의
테이블
돌입
##역이
##에서만
##남도
트레이
단순한
조사한
조만
임무
시키
##터가
##되는데
아마도
선수가
체크
일정을
가족이
초등
##ps
##심사
끊임
소리가
영구
스웨덴
원인이
뚜렷
##함과
180
지난주
지속적인
이용하는
회피
##부문
##정과
제국
추석
##파를
사고로
의혹이
한국과
작중
체력
화려한
##으려고
국제사
##소한
미사
행위를
분야에서
없었습니다
공개된
대변인
formula
일주일
피아
공군
찾고
참석해
##집니다
미래를
놀라운
지목
이걸
##연한
##할지
지역구
했을
5만
##ok
중에는
세금을
나라의
##마켓
##보다도
매니
##테크
불리
##장인
별다른
##절을
고개를
##기금
무선
개인의
이것을
##24
##해서는
주한
협조
내다봤다
##이닝
강의
의원을
그날
포장
압수수
##타는
여왕
스프
##니의
적응
##oh
진료
월요일
##나를
##적의
또다시
전까지
도덕
##친다
##실의
무산
이끄는
양성
기획재정부
내놓은
대피
##로도
방치
오늘은
추세
##ct
혹시
타입
차량을
##약품
스카
채무
기분
축제
##책임
600
##렬한
##서와
멋진
##재단
꿈을
시기에
##효과
허가
##하자는
##위원회의
왜곡
보건복지
몸이
환율
##해지는
##졌던
##절한
의원과
##90
업종
방위
##것이
##법상
도심
말이다
버전
멀티
전당
어두
##화한
주변에
##트롤
소수
##파로
기능이
남쪽
우승을
눈길을
2018
일본이
공기
##늦게
깔끔
1999년
1인당
않았던
중순
대부분이
패널
비율
잉글
설문
##인치
2명
검거
##치며
가졌다
##렸을
선전
주관
반대하는
공작
곳을
상향
##길이
##17
78
대장
##견을
중고
활용해
모습으로
방법은
대미
조만간
##있어
문제의
##주인
물이
##점의
않으며
치고
마시
사용해
김동
일대
내야
##주지
있었습니다
##형으로
밝혀졌다
이젠
한다면
##모토
방문한
늦게
일치
##일리
높게
##됐으며
비례대표
##양이
국내외
내각
##하시는
자연스럽게
아버지가
군인
##리자
재능
괴롭
연관
당황
처음이다
동북
강도
북한에
유지하고
사업에
당신의
관계자
세상에
제약
비율이
지방선거
고수
사고를
수준을
가시
##체계
들려
##놨다
OS
용인
##000여
포함하여
##야마
내정
세계의
나타난
광고
측근
더해
제공한다
그러면
등이다
갖추
보좌
권고
회사가
속도가
##들과의
신선
필요하다는
붙여
진상
##수산
##디언
발급
국가가
이뤄진
장교
##주와
감독의
씨를
고문
생겼
재생
##레인
것이라며
그쳤다
양측
2009
##재로
수준이다
다이어
최후
선배
아사
##학자
중국과
우려를
내수
연대
따뜻한
말하고
갖는
당분간
##사업을
##조에
한국에서
##경에
##구와
의장
##석의
재활
시의
##NA
할아버
후보로
참여하는
아나
펀드
##하에
아이들을
부정적인
##받침
방향을
화가
##물질
위기를
자체를
##인터
1998년
수급
국내에서
##무기
##으로도
##tt
대대
페이지
20여
들어갈
병원으로
누적
떠난
되었
헤어
헤드
김재
중독
##화하고
말까지
금융감독
일관
##속에
되찾
좌우
##스런
아스
별도로
경우에
##00원
##성한
모색
주기
대표팀
찾아가
경찰관
상태를
친환경
지니
바뀐
##신문
##정상
보면서
등장한다
조사하고
감안하면
저렴한
품질
##바닥
테마
##업이
마침내
##청을
받았습니다
일으킨
농협
챙겨
비용이
비핵
보여준
데리고
##연대
비극
물건을
존재한다
뜨거운
##ack
김기
날씨
느낌을
비판을
스코틀랜드
여지가
##들에게는
합쳐
소프트웨어
##공동
중화
##게도
들어갔
##야구
불확
##이든
##층에
##카와
처음부터
##00억원
시중
##위원은
지낸
사진은
##정당
부모님
##안타
국민들이
영혼
##행한
중구
절차
그들
##운용
평범한
##세포
##시장의
비교해
사랑하는
인상을
골드
철거
측면에서
FC
##있고
##라우드
잡은
죽을
세포
4만
1997년
김용
##환을
위축
나가는
일으키
젊은이
##신은
금속
받기
##하의
건립
##프의
야생
들은
##데요
스트라이
갈아
##톨릭
도박
말았다
학교에
상품을
신중
##기에서
##ub
##가량
지어
개성공단
미만
화물
사후
중도
규모는
저도
깊이
##티즌
모른
##형은
##연이
불구속
무렵
가이드
열었다
86
유사한
비싸
집계됐다
##사들의
요청했다
후보자
체제
장례
##타민
서울의
##터테인
수술을
해체
총기
##대사
손으로
공연을
삼성전자는
받아들여
트럭
전략을
##란을
##축구
제4
사내
자신에게
##배를
이집트
##우의
백만
##색이
##레벨
돌아온
숨겨
4시
홀로
##회와
유승민
환자가
유대
박사는
구체적으로
고통을
번째로
4차
바이오
몰래
매수
##심으로
전망이
추억
밤에
##차별
가난
시작한다
잠깐
높이는
입력
얼음
##수준
지자체
둘러싸
농민
##하기가
아키
##ah
국민을
##시킨다
##미술
스키
동참
##해진다
##은행이
올리는
##처분
자유한국
##파크
노래를
때의
선수들이
출동
좋고
##산에
플라
진행하고
쓰지
##하므로
달라고
지침
태어나
##ess
일도
NH
##답게
운영하고
코스닥
문화재
##하러
이상한
이하의
워크
에스
##ist
##분쯤
독특한
##ne
네티즌
블록
일자리를
성매매
향한
##레이션
1번
##ark
병원에
폭풍
추정된다
역임
전체의
북쪽
##인권
지내
화장품
##은행의
충족
##IS
똑같은
##한을
반도체
비즈니스
경제가
수감
간주
생각했다
구조조정
##부대
종류의
일환
98
##타가
있으므로
것인가
변호사는
언제나
암살
그러니까
거야
텍사
한국이
##화할
82
묻는
##양의
시나리오
하거나
##습을
과도한
베르
##ian
프린
##라와
스미
and
팀은
이었다
배려
포스트
##가며
얻는
##소비
40대
##석에
주제로
예외
##태를
거대
식민
안되는
모래
##할수
##기념
##관련
##거리는
승진
현황
##역으로
파키스탄
이씨는
2008
사전에
##언을
##오프
##중공업
영화를
이산
확신
장식
버락
사건으로
옛날
범위
##악한
정치인
##왔던
빠져나
여러분
시점에서
마사
##곳을
세운
2조
않았다는
##리즘
##플러스
거리를
그야말로
##청의
어둠
구단
직원이
웨스트
창원
털어
잉글랜드
발견된
제이
실시한
계획이
시켜
##모가
두번째
행정부
비서실
배달
명시
##별로는
벤처
번호
후쿠
태도를
패러
##건강
##냐는
##까지만
미국을
##중이
##PS
철회
##액의
##층이
##시간이
복원
제주도
개발한
중부
코너
1심
2회
캠핑
##았으며
유가족
제외하면
근데
클리어
가맹
면접
총리의
##금으로
어디서
##장한
고기
물에
##되지만
기다리고
##미사일
나라를
배포
원정
재발
##전한
##지능
##타운
##유로
보내는
타격을
##소와
경향이
궁극
사태가
어머니는
종사
##파이
에드
2루
청주
해변
만났
##임에도
법원은
유행
##당국은
프리미어
79
베스트
##먹는
##ate
탈북
##확인
말레이
##혁신
##감과
##our
이후에도
관할
##고의
자꾸
회수
화성
##았다는
최저임금
지도자
세상
논란을
한마디
원인을
터뜨
재건축
3명
포함된
##우기
##병이
영향으로
브라운
##값이
권리
아파
인프라
##들고
금강
핸드
뽑아
때에는
담겨
##펀드
더블
신입
##식과
##감에
##보로
맡아
##당에서
##체제
세이
끌어올
##망이
##점과
##세이
수를
백화점
##원들은
다수의
치열한
##파의
##개국
##어와
창작
유해
여러가지
가능성
클리
데이터를
국민들의
##man
크리스마스
주시
영원
오버
비리
##21
##법의
소매
티켓
온갖
중장
극장
격려
가족과
진지
일행
무언
##게는
중국에서
흡연
억제
한국을
열린다
##자마자
되며
농촌
하위
논의를
생각하면
편입
아르헨
##위원회에
##아를
합법
##ick
##되었지만
##ss
하다가
김대중
##프레
공개한
안전한
##박한
디자이너
유가
커플
아무래도
##드립니다
재배
##est
##정지
##브를
대표를
##장에게
연구를
##투자증권
경고했다
##통은
지표
탈퇴
##화학
위치를
##위원장이
전사
추진하고
늘어날
중에서도
탄핵
성장을
제공하고
거래를
느끼는
##는데도
크기
특성상
남성이
##련의
저작
채워
혁명
##안과
참석했다
##다란
해운
싱가포르
##역의
진행된다
점심
한쪽
뒷받침
선거구
저축은행
시대에
##배우
있겠
노르
부근
발을
그렇다면
손상
GS
입장에서
세계적인
베네
##너지
1시
미래에
##산은
지방자치
##부처
저지른
독일의
주간
83
포지
대한항공
약간의
보며
아르헨티
계기가
입건
130
사립
##버렸다
##옵니다
바이러
##기에는
자가
거친
##인인
전쟁을
민주당은
##했었다
##종이
구속영
억울
정규직
공시
당했다
벌어진
2번
선제
여성은
북측
이번이
그다
사용한다
버그
휴가
스위스
간접
##아는
벌인
이성
기업들이
##목이
올바른
vs
##노조
##소리
##에요
주민들이
갖추고
맛이
##bc
이통
아버지는
깜짝
189
SBS
초점을
언론에
솔로
장면이
간단한
하나인
포스팅
창의
나은
두려워
접어
##오를
긍정적인
서류
##안으로
확인했다
##ef
법안을
##더라고
발전을
총을
##박물
##소년
##협정
##대전
북핵
이후에는
요구를
##경찰서는
기동
성공했다
##건에
뒤늦게
국회에
조세
보고서에
##5천
100만
질문을
재직
집어
출장
납품
달러의
한층
##이므로
##이에요
분석한
##48
태국
배당
얻고
발효
무료로
모드
눈치
FA
이거
학교에서
강릉
##셀로
골을
다행히
##22
상처를
3분기
예금
##름이
인재
##대체
최다
소위
단축
않아서
놓은
밖에서
보여주고
##ast
##추는
불교
계열사
해방
##치료
전술
정도는
탈당
800
##억원에
명령을
로드
측의
##백을
##면에서
고유
합의를
박원
##리우
사로
팔레
남긴
얘기다
당첨
##머리
##렸다고
그래픽
가려
뮤직
입장에서는
경주
##격으로
처분
NC
##합의
남자가
성명을
브루
철수
듯하다
같아
서구
부서
강간
객관
오빠
보내고
공식적으로
10개
시대의
눈물을
관세
사용되는
##개선
##졌을
건강한
약한
일간
흥미
자체는
부하
수익을
였다
##레일
##달아
평가가
미스
##잡고
날이
학생들의
이어지고
걸로
##사카
소개했다
sh
컨트롤
물었다
고전
##ath
이렇
복잡한
일각에서는
##추진
참조
확률
전망된다
대표하는
수준이
서쪽
7년
토지
광범
브레이
##유럽
방송을
일본에서
첫째
리버풀
##들인
CNN
##방향
가톨릭
자기가
##방에서
시민단체
이라면서
리스크
후에는
##하자면
나면
힘들다
자유롭게
실질적인
조달
##되거나
엔딩
##터는
##나이티
양산
자매
확인하고
##이트를
차원의
밴드
##리케이션
2시간
막대한
모르고
에게
권리를
##스트로
2주
바깥
사용하지
경기에
보고서는
배가
현직
##했어요
구경
군은
담고
신청을
오늘의
무기를
받았다고
갖게
우리나라의
뿌리
성우
자세히
아라
마드리
인공지능
##고도
##층을
제출한
##ord
##부르크
검사를
##워드
96
프라
이어졌다
커버
판사는
비타민
Mr
많지
분석이
달한다
자제
우리에게
##ight
검토하고
침입
##품이
##로에
##아파트
##령이
##청문
감소했다
전체적으로
50대
##교사
##두에
##시장이
##ud
존재하는
##진과
아쉽
갈등을
##인한
진행할
설치된
브로
문제와
##니를
##마리
조건을
##생활을
보고서를
상한
2분기
높았다
수습
우수한
##다보니
기대하고
비난했다
주장하고
한참
소장
교류
보이며
##프리카
##만원의
엑스
있었으나
잃어버
##IC
결론을
##시리즈
##음악
위성
그건
근로자
끔찍한
감지
##만원으로
당국이
##로서의
경쟁을
##욕을
##ert
첨단
##살이
중국인
트렌
태평양
##있던
없으면
87
##의료
봤다
중심의
LG전
출생
전인
살려
나에게
##면이
##담으로
가라
어렵다는
아이패
의문
공간을
종이
횡령
##국인
고생
식물
##음에
상황은
새해
급등
임기
##통상
##주의를
상태에
카운티
어쨌
이뤄질
정보가
나이가
가공
해수
##러가
제조업
보다는
납부
푸틴
크림
벌였다
있을지
##프로그램
칭찬
들을
##연의
거리가
##만으로도
유나이티
노동당
배송
6년
세계를
곳이다
민주통합
모습은
##내며
견제
전파
날짜
##ort
IMF
검찰의
미션
주행
남한
줄여
있었으며
##랑이
솔직
추산
##담당
않았을
##광역시
##마는
나타나는
생길
##데스
역사적
친구가
케이스
##ph
가족의
##셔널
인테
##ant
신인
##화될
GDP
돌아오
아래로
진행되는
기본적인
97
##의로
쿠바
김진
경쟁이
제안했다
아버지의
##권과
국토교통
##23
##PG
생각하지
해병
시에
1995년
##링을
논의가
주목된다
좋겠다
것일
과제
그것도
완벽한
사격
활용할
이끌고
##머스
In
김상
##ib
##ge
##거리가
선거에서
##라이언
카르
이나
##로서는
안된다
제어
융합
배틀
색깔
노란
의원들이
##력도
버리고
다음에
연료
스펙
##요금
버티
분석이다
목요일
##시간을
올리고
71
89
##널드
##질의
결정할
몰랐
저소득
스크린
##이게
잡는
전무
교과서
##봉사
상환
##자본
조항
조사에서
행복한
##실과
선을
학생들은
2층
자문
프라이
포털
봅니다
매도
맡았다
노동자
음료
그림을
후배
##민이
LG유
자식
차량이
회동
##교를
기각
##고등학교
장거리
CD
30년
코리아
지적도
가족을
내릴
의미한다
##시장에
##하였으나
정도다
자신은
##마크
건강보험
녹음
US
애플의
미안
침몰
##나라는
##oy
##그래
제시한
4천
대항
시간은
스티븐
대학의
##까지의
들어온
진행되고
신고를
음악을
전체를
늘려
##론은
안전을
이듬
프로세
정책에
생명을
##췄다
##문에서
##웠던
##박스
패키
처럼
입국
한동안
어렵게
비트
중국에
안정적인
업그레이드
##상공
##회장
##ER
##반을
##생명
주류
간다
##선과
작년에
아이들은
기대를
시작해
BM
94
예정된
뛰어나
장갑
##eg
부드러
##eb
말레이시아
즐기는
먹어
##센터에서
한계
적어
##프리
있었기
애플이
정밀
파란
정신을
슬로
##이면서
불확실
급격히
유리한
당시의
93
국산
참사
##편의
주에
매주
불어
저질
보게
플로리다
하루에
우리를
세트
사망했다
바람직
등판
방침을
학원
러시아의
적도
오스
국정감
##당과
말라
공원
##200
성공한
명품
독점
리더십
##루를
##저히
게임의
##FC
철학
##금지
높였다
제품은
유아
커다란
찾지
불과하다
##출을
상당의
회사를
책임이
##둥이
##ity
등등
갈등이
##름을
투어
치명적인
고구
일러
모험
야간
110
포르투
갖춰
여유
활용한
유럽의
위주로
##법과
새누리당이
무효
##됨에
걸고
개그
현장을
보조금
상하이
끊임없이
인사청문
이듬해
##보자
##밀히
리비아
이로써
##27
##고속도로
##해야합니다
사우디
##io
##GB
수준에
육아
대출을
##수요
없도록
카이
강행
기어
압수수색
알지
냉장
##인민
열차
집안
##리나
마라
승부
제압
##인도
알바
면역
서술
##로스
확충
119
군의
순으로
##통이
기기
##28
##명이다
법무부
제시했다
지적이다
New
차이를
잡지
경찰과
즐거
700
의지
모스크
##운동을
안으로
포트
구조를
던져
골목
넘어서
오피스
##조로
경쟁력을
역사상
##클럽
##나고
권한을
##물과
감축
트랙
순수
월급
##편이
수송
넘어가
##민의
촉진
##보건
편리
때려
급속
조속
제품이
앞세
점수를
아마존
되자
도착한
약속을
1호
전담
아침에
##익을
##스트는
세계적으로
##되었을
연루
대부분은
트레
의원들은
잃고
것인데
성적을
총선에서
밝은
오로
마일
사형
요구하고
방통
항공기
##사용
광화
오스트리아
춘천
대의
교수가
사진이
화요일
5년간
만든다
파는
수사에
트로
어머니가
바르셀로
나뉘
주파
철저한
다크
##son
중립
##할때
양도
자칫
##iz
시상
품목
푸른
##주년을
부지
개시
1996년
한해
내비
##베르
4분기
침묵
위대한
풍부한
일어날
19대
애초에
1990년
출국
환경을
생기는
##미니
식사를
가벼운
준비가
상세
협력을
첫날
##차량
최근에
이른다
죽음을
피트
성추행
부러
시정
원내대표가
##교과
신뢰를
##보증
차관
높여
수여
매체
##면의
##세트
하시
노예
야외
언급한
전라
측에
##타의
있을까
전월
##세와
##설이
정말로
##어지고
장면을
해임
##통화
인류
##들었다
이송
폭스
본부
사망한
벨기에
다를
##났다고
명은
김경
스트레스
##하세요
잡을
군대
에서는
라이트
인정했다
여성을
##보며
##니스탄
교육부
##달라는
##모로
여야가
없었고
추정되는
불꽃
##하는지
중대
배터리
배상
##카를
##운전
##26
수의
생각할
##치면서
##바다
##조치
마땅
대비해
이념
민원
주유
새끼
개발을
제안을
있었다는
전송
확실한
복수
행사에
집회
##생이
회전
제2차
히트
희망을
법원에
신의
주먹
입었다
##우리
##린이
이어진
##점검
수호
차세대
1층
근거로
##화되고
##신고
##이라서
루이스
원자력
세무
갈라
이례
##위해
##환이
##정책을
##자로서
바람이
유효
##유예
정부를
의장은
##ain
피터
분야의
귀족
직원들이
다들
##히지
세탁
달린
##하셨
##그룹은
소집
##장치
자국
주민들은
개조
오지
##건은
최경
고양이
윤리
##된다면
과일
가중
스튜디오
아들을
넥센
가족은
증시
직접적인
예쁜
피할
##데미
파업
중재
##상승
##과정에서
장학
반응이
마쳤다
##중국
속도로
##내지
블라
이해할
참여할
버려
김해
##님은
불공
##영을
대주
##쁘게
갑작
유로존
to
계절
맛있는
##뉴스
여부에
##편을
한국어
심하게
벗어
주변의
##ee
##기인
자신과
##팅을
위원장이
7개
자동으로
##중을
기사를
끌려
##피를
영광
##ng
안타까
개선을
베이스
##바람
경제의
비주
##가요
##긴다
과정에
성범죄
활성
간에
이병
1로
이용하여
똑같이
분이
아프가
위험을
##런스
수차례
##드라
모은
부착
올릴
160
##기관의
사회에
개발에
언급했다
과거의
선포
프랑스의
MB
##피해
맞춤형
얻었다
나라가
지리
신기
비율은
드물
보편
유럽연합
계승
나이트
4대강
내보
엄청나게
##곳이
##토리
##체험
##데다
##자료를
중국을
##풀이
프로듀
상관없이
순위
웹사이트
자발
##실히
있느냐
분기
##BM
판사
클래식
사람과
그렇지만
이길
안산
3억
종족
드디어
KIA
분들
자라
있었을
하얀
단행
##관계가
원활
걸릴
귀여
대통령에게
##막을
##cc
정상적인
못하면
김일
FI
##페이
바뀌었다
여권
유형
오를
가기
박정희
##도서
##되었던
SM
내달
빛을
##경찰청
##지대
경쟁력
금호
고도
감정을
비중은
결심
없다며
역전
신형
##사랑
로버트
동시
계급
싶지
##포트
전격
강제로
중견
바꿀
##더라고요
고성
##슨의
정확하게
경유
1994년
소규모
승강
스테이지
달했다
이지
동계
##예산
##였다는
지능
허리
##둘러
다리를
꼽힌다
인구는
상승했다
기소된
관측이
위장
##시장을
정책이
중간에
한창
크레
느끼고
비난을
##DI
경찰청
3000
##치면
테크
앞장
##것을
읽어
원장은
기자들과
시카
특징이다
관리를
##되게
움직임을
배를
확인한
스마트폰을
##필요
##바라
살짜리
##잖아요
기록하며
나타냈다
소지
순천
협의를
다루는
##터의
3번
##공격
아이의
숨어
##브라
만나는
유래
서울시는
사라진
답답
상원
사태를
##마토
##폭력
첫번째
근처에
주식을
주목을
이뤄지지
##지다
##색으로
폭로
##먹고
##카가
끝나고
게임이
실정
적의
하기도
개를
불평
3배
30여
모습이다
##보드
비판이
평택
높이고
##에서부터
병행
흑인
신용카드
##창조
했으며
밝히고
지역으로
외면
운송
고조
##우며
단어
도시의
##션은
애플은
사업이
##29
형식
분할
140
종로구
총장
이르면
높고
혈액
장점
그런지
예상했다
유지하는
3년간
학대
점에
감각
##의가
##i는
당뇨
성립
다짐
시위를
끝날
부장판
균형
##림이
매니저
##ore
##디스
무덤
석방
속으로
##행사
8개
흐름을
##코올
높아지고
##겠죠
##사한
##초등학교
대형마트
마리아
영향이
red
시리즈의
얼굴이
##루가
바닥에
무엇이
##우지
적당
국채
되도록
##리라
바닷
면서도
##지주
금메
그러자
서양
##투를
애플리케이션
##슬러
##가에서
링크
##진에
일환으로
코미
법조
아프가니스탄
날려
공정거래
클릭
공무원연금
##se
개정안
악성
떨어뜨
게재
임무를
일본에
달에
th
있다가
바꾸는
단말기
해요
##래프트
##허가
야당이
##백과
양자
##시하는
시민들이
과거에
공격에
##35
꼼꼼
환자의
강화하고
아가
성능을
팔레스타
잡았다
제기했다
##ff
##르가
증가하고
##억원이
##두는
아이들의
폴란드
기분이
스캔
진실
##ich
설명을
간편
관해
##렸다는
서울중앙지검
##왕의
시작할
사무실
기반을
그랜드
막는
컨설
레이저
한진
개인적으로
경력
조명
수주
유지할
##겁게
전에는
히어로
시드
선택할
자택
네이
베를
부른다
쫓아
결과적으로
인간이
##계열
##협의회
시작하는
소식이
누군가
##지라
터치
안고
숙박
양의
복용
##티아
보았다
왜냐
엇갈
이밖에
부시
신세계
줄일
is
컨셉
믿을
발견했다
##표가
팔아
재판을
에피소드
서울에서
아직까지
##더스
증상이
곳곳에
박영
기존에
치매
타는
움직이는
특별히
or
창립
사찰
오해
임직원
##론의
헤이
##30분
신발
있어도
레인
여학생
세웠다
##해왔
독재
##없다
##행위를
2007
Al
에볼
않았으며
수렴
실제로는
##단에서
도주
##인데요
공주
기간에
##렸지만
또다른
##것은
81
이룬
편이
시대를
힘입
이외에도
북한을
##생의
에이스
##하긴
##다리
##데이터
##되도록
채로
무슬
유인
##보장
열렸다
캠페인
수있다
맛있
텍사스
##리조
깨달
##해져
범행을
없는데
##처는
##스러워
의외로
늘어나는
양쪽
##급여
소멸
시공
해주는
고객이
데는
라이벌
양적
##민족
이은
할지
까다
##중이다
##하십시오
일련의
만만
청와대는
구상
포르투갈
##미디어
뜻이다
강남구
박원순
##어지는
깨닫
가볍게
고무
김포
긍정적
액션
##돌이
표명
##간담
면제
보여줍니다
급락
##경의
쇼핑몰
판단했다
잘라
보고서
상속
왔습니다
착륙
내리는
##질랜드
받았으며
ms
드러냈다
지방자치단체
좀더
나간
증거를
가계부채
결정에
아이디어
오리지
##등이
##놀이
##그라
##5000
10명
손해배
연상
고백
매출이
분당
처벌을
레이스
정통
자영업
##ran
나서는
불가능한
단단
언니
대목
잠을
물론이고
크지
받으며
쓰이는
통치
##호로
##거리를
마시고
노력이
##스티벌
것만
##과도
배정
나란히
후에도
중의
복구
가입자
헌법재판
대가
이수
관료
##파는
##동으로
거짓말
레이더
많은데
진행하는
부정적
공격이
추격
예상되는
사용하면
맛을
위탁
제기되고
##버리는
때문이라고
연구에
순식
##보에
일명
규모를
##회로
부유
설탕
요새
사유
실효
소중한
명절
마스크
##카의
공동으로
떨어질
BBC
주가가
거라고
##재는
##우주
웃음
지붕
##대학원
##분석
기대한다
오직
상실
한꺼
이영
본질
##45
대회에서
줄이
국내에
요구한
추진할
정부에서
보낼
시골
재산을
차지하고
##작을
일부러
문화를
##담한
저의
비박
삼성물
지향
교통사고
##으론
이전의
연애
##교육을
지점
이득
##하게도
동쪽
들어와
##자나
맥주
리얼
만났다
##그룹의
##났고
어쨌든
단백
##권에서
시스템이
##인들을
수험
기자가
시진
신생
상용
마틴
한수
장치
어두운
규제를
한계가
3분의
운전자
클라우드
김민
인명
유전자
일부가
출신인
송파
한꺼번에
포토
공익
무척
이벤트를
순환
차라리
뉴질랜드
제품의
##지나
영향력을
더이상
마련해
아끼
청약
거세
일하고
준비하고
양육
##입니까
찾았다
##릅니다
물고
전략적
자사
놓여
판매하는
수요일
노벨
운항
최상
대개
선거를
##용품
없던
멈추
주민들의
의사가
##sh
없었
해명
##만9
잠실
##up
야당의
많아서
100여
줄이는
위조
성사
촛불
삼아
##서야
사실이다
##하느냐
서식
##인들
여수
##풍이
##위원회에서
얘기가
##ley
##함은
땅을
사례를
줄이고
들여다
쌓아
메가
없다면
디젤
남편이
특혜
그로
사정
학생이
요청을
언덕
##방지
해산
동성애
영등
제휴
시진핑
자위
##ass
000원
약물
무대에
##타워
영장
필요성을
순식간에
비공
스카이
득표
유독
지니고
진행될
##스럽다
어릴
부부는
아티
##영이
마포
188
언젠
##ive
모델을
##키의
최소화
분산
학교를
아름다
##ith
우유
회사에
##팀을
##했다면
자는
정치를
기업에
당시에는
막고
기간이
조치가
##키가
클라
바라는
담당하는
받았고
배신
##인사
힘들어
그룹의
만일
신문은
한가
한중
편지를
작업이
de
선진국
여동생
즐겨
있는데요
##민은
##공천
1992년
이르기까지
복무
고스
##금의
##화폐
비중을
##처벌
속하는
확률이
알렉산
무지
이대
하락했다
3회
중산
정교
극대
판매를
뒤에서
##오가
##스포츠
##본다
지원할
것들이
추진하는
든다
기쁨
##판에서
황제
정수
지분을
10분
대공
##end
외모
스타트
##해줄
요시
##노트
##집이
##평화
듣는
광화문
시계
반성
##란시
가만
세계에
재현
주장한다
##본을
방안도
비교하면
대략
가격에
빈곤
선보였다
돼지
국회가
##씨에
##풍을
침략
##취를
만다
전통적인
제로
A씨가
이곳에서
에는
##내에
진압
##체인
##이었다고
국무총리
##팀의
인적
인물이
방한
##러는
##선언
과학기술
소외
정도를
여신
사흘
인터뷰를
##본부는
상반
이루어진
감상
##곳의
둘이
미치지
##종은
해결할
흥행
참전
열릴
전신
##스트가
앵커
##다이
유치원
근대
적정
빨라
자유한국당
총격
장을
드리
##법원
2명이
다룬
미루
우연히
##됐을
##진보
주제
함유
금리를
도둑
딸이
목포
알레
비상대책
##더군요
2인
최대의
노트북
대치
##집에
진행한다
일어나는
적대
##있습니다
위해선
##경기에서
쌍용
성격이
##차피
##럽게
앞선
사람들과
규정을
전반적으로
##대교
파운드
##영은
##편에
##렉시
리뷰
장비를
성공적으로
세인트
사용을
출시된
사우스
그녀에게
영국에서
##트릭
어차피
고가
골든
포괄
##시절
시작했습니다
내외
영남
##회복
##그러
안타깝
##디션
주장에
처음에
##uc
성폭력
딸을
처리를
노력하고
파라
병사
##버린다
마구
NA
염두에
##학의
##CC
개혁을
존경
예정인
강화를
##테러
스킨
년간
넣은
현실을
경우에도
생일
대가로
한데
##해지
##객이
제5
하향
다이아
로비
지옥
성공을
##코의
기업은
것인
보복
##곡을
선도
의원도
##ood
##대응
영등포
뛰어넘
국민에게
1993년
유료
##토를
출간
같다고
부상으로
##폭이
정유
##으러
사건과
과장
생각보다
신화
특성을
두드러
##했다며
정보통신
##운드를
5000
기원전
##들만
의해서
사이즈
##정부의
판단을
sp
이쪽
오르는
싸우는
무더
##든가
국가를
가능성에
먹으면
즐기
나와서
##인물
사회주의
제네
정원
##되던
##님을
테이
##시에서
치킨
절감
인식을
풀려
반란
시즌을
##교육청
방식이
후임
화염
힘입어
생각은
##합을
규모로
군사적
줄을
##르며
얼굴에
금융당
원장
##ont
불참
그릇
여담으로
3위
##분으로
필요할
완전한
##색의
92
알리는
##하를
##길에
뇌물
##슨이
##바겐
##수지
출처
##기업의
##카는
드러난
이내에
한두
기도
알코올
##NG
##계획을
생겼다
1대
교섭
모르겠다
의문을
가능할
##ind
사안
진행했다
##문으로
##으로서의
실태
##감도
##체와
제공할
##인터넷
구조조
출신으로
이유다
일방적으로
조사가
이겨
준수
자진
##인들에게
24시간
해결을
CP
##자리에
피해자가
SS
##견이
좁은
보도에
인접
반박했다
사장이
옹호
경제민주
##아리
지키는
##군으로
업체가
##백화점
꼬집
전체가
##동은
코치
이리
##들여
엄마가
##어에
어느정도
완공
##미한
카타
위헌
##센터를
그중
##HD
동결
##산으로
면에서
발레
대부
택배
4명
많습니다
못했던
##토의
전제
구급
##ton
학술
3조
계획이라고
##매를
불필요
개가
보이지만
건물을
이번엔
애매
tv
##용은
##오의
해결하기
1분
그들에게
전쟁이
BMW
내게
잇는
##사도
일로
늘어나고
##되었다는
해마다
부추
상의
버린
그다지
건네
반려
처형
아리
##브로
수시로
독도
##결제
지원이
##공제
레스토
##포럼
##소시
##으려는
경제를
강아
미뤄
##판은
발표된
원천
생각에
금리인
장성
##기소
##숙한
아픈
##계좌
바꾼
재단
##동물
연재
##2천
##자유
지지율
진실을
인구가
전투기
##MC
전방
활동에
논리
치솟
##되었는데
자유를
##작업을
작가의
##하우스
식의
정한
말하면
빌딩
##란시스코
선택한
땅에
발라
손실을
사업은
빅토
##시설을
격리
보석
주장한
도대체
선수는
범죄를
##토가
필요로
웨이
2006
어디에
##총을
조리
1991년
입단
돌아와
오리지널
얻기
오사카
레알
유의
조율
영유
잠정
때에
##루션
제발
친척
진행한
범위를
권력을
0으로
HD
니콜
##당할
위치에
기업들의
##셔야
그러다
재보
입장에
인식이
저격
천천
##만8
신라
투기
답변을
월세
책정
나타난다
##로와
검출
삼성전자가
벌여
초반에
않는다면
투표를
저가
##인트를
클레
비행기
돕는
활약을
된다면
마음으로
체감
##겠어요
판매가
##오와
하나도
##현은
분야에
소금
LG전자
##체육관광
##자회담
민중
머무
##셨다
물려
##등의
안전하게
##LL
붙은
정신적
돌고
선거에
제기한
불렀
비하면
내장
참여를
과잉
남자는
##과학기술
악용
도널드
위험에
##장관은
나빠
안녕
기준이
날씨가
##저축은행
중개
커질
사람들도
가까워
개척
삼국
늘어났다
못했습니다
정상화
중복
부가
##호에
##주행
레전
나오면
텔레비전
도는
지나지
SU
##니와
지키고
##계와
기지
협약
거뒀
김치
##센트
누구도
받으면
무슬림
##ECD
나누고
장병
기대된다
이름의
피하기
전국의
##값을
바이러스
당연한
자선
우리나라는
면세점
대검
##츠를
점프
대안
수사가
확립
인디
모스크바
미세먼지
##로우
겪은
아까
##업무
바퀴
보자
모금
대박
출마를
덕에
프랜
그렇다
트래
꼽았다
불만
진행됐다
부모가
좋다고
플라스
담배를
전차
공사를
현안
어려움
OECD
씨와
선사
타이밍
자료에
학살
따져
##마에
시신
##조리
##참여
##케이션
계파
챔피언스
권장
##역은
양념
잊지
화를
##드레
류현
##TI
효과는
홍준
와인
근본적인
인용해
민주노총
모를
##산과
시야
몽골
유포
강연
민주화
천천히
##추어
늦은
##만6
모았다
점포
##키퍼
##외교
먹은
사임
서브
##수입
위를
크리
아메리카
연락을
##스레
기자회견에서
별도
##발이
어지
합성
벌이는
많을
##미나
이해가
##료는
이후의
자이
백악관
예능
번도
여론이
결성
실적을
손실
12시
포함돼
작품이
것이기
8년
안다
의견도
면담
높이기
##시장은
인쇄
에릭
공개적으로
놀이
살펴보면
ar
와중에
감수
##저가
##담보
이럴
습격
남겼다
나서고
당국의
앤드
##열을
나지
절망
병역
##한이
대상을
##자금을
새누리당의
##EA
##퍼스
보컬
##지기도
사로잡
##재정
고시
일어났다
형식으로
웨일
관계없이
제조업체
시설을
##오스
감동
##ly
##버리
##디는
과정이
HP
남양
건국
관계에
##부담
##계에서
진출을
눈물
변형
이마트
사회를
5대
당원
친노
등산
작품은
적립
취한
결혼을
##전환
##문과
강화하는
무엇인지
시인
통화에서
##적이며
거둔
포함되어
장르
떠났다
부천
기록하고
민감한
##계로
##을때
##코는
공습
행사는
##작업
머리에
최고경영
임상
모양의
뉴시스
##감으로
과태
서방
지고
휘발
##심은
불가능하다
##침을
##겠습니까
내려가
가전
우회
##드릴
피아노
LA
부인은
##통일
종전
최경환
앱을
퇴근
##반이
##현이
소폭
신앙
##찰을
1988년
공동대표
정권의
컸다
지주
공간이
눌러
서비스가
기간을
괜찮은
3루
일으켜
##로워
##er는
##금리를
죽이
일고
들어오는
같았다
경제에
##만7
##있다고
상대가
그해
##론에
나고
후보자는
원의
발표할
기관은
신조
어머니의
실력
과시
부회장
위협을
무난
라운드
의지가
화장실
블룸
고립
즐거운
김종인
선택을
오페
유혹
##부족
##줄이
새겨
연준
##신청
##진으로
열쇠
수단
##해준
##등한
아군
##공사는
의미로
모니터링
부를
170
무용
##OC
트윗
싶습니다
의원들의
내리고
법이
##수익
시전
속의
민주통합당
가방
##두를
광복
##월한
되었습니다
왜냐하면
나타내는
박스
각자
##패로
슬픔
좌절
이완
##강을
이태
##만달러
규정하고
연세대
농림
##장비
서서히
단호
91
무거운
실용
관행
배경으로
부자
##aw
타결
구성되어
##당하고
공립
판정을
러브
호응
인텔
유연
보스턴
##드려
##국장
구청
들면
겪는
골키퍼
5명
물류
1980년
##지수는
추방
정책위의
싶다고
##으신
##ire
##시간에
청와대가
방안이
##친구
강력히
##공장
##31
파악하고
레스토랑
you
거리에
베를린
186
전형적인
만성
잡기
같은데
김광
하나씩
기다리는
##순환
식량
사용이
싸움을
증거가
지은
15년
##막이
##았으나
불투
##상담
##간을
배심
##만원에
지원하고
##양은
논의할
개정안을
수확
지역이
##ust
전교
예정이라고
의류
보충
서울시장
##시피
전임
움직임이
##ug
3명이
불렀다
스노
무서운
외곽
전염
역량을
좋게
##ex
외신
한다며
장수
주장은
옵션
##영의
##도르
1990년대
##지니어
건강을
구별
신경을
여부는
때보다
부드
##비율
해리
서울특별
박지원
번에
##이지를
준공
길게
세우고
##분은
미얀
양보
##집에서
##즈와
회장을
노스
단위
나타나고
##하지도
거래가
미국으로
휩싸
##협상
골라
##나갈
치는
이곳에
차원
##아트
시행령
2000년대
집행유예
참여했다
무의
무작
듀얼
적혀
개인적인
경기는
결정이
##프라이
당해
##형에
##음은
목을
산책
##당하는
콘서트
쳤다
인정하고
##권으로
사면
해명했다
대조
계란
자존
돋보
완벽하게
장관의
##보지
##시켜야
않았기
가죽
불량
##해야한다
일본군
##마저도
발병
##베이터
응용
인스타
2대
##운을
등장했다
치유
##고와
해가
들었습니다
##갑니다
자녀를
체력이
않겠다는
통하여
금방
홍준표
세제
##pic
명목으로
세입
참여해
##조차도
어리
이용자
우편
토로
시기를
곤란
##리아의
조회
암호
행사가
세력이
PS
##해야한다고
##o는
##어질
예정입니다
드레
문서를
크로스
제조사
어디까지
변화에
대통령에
##ohn
##ban
타워
DNA
##위원장을
정관
민주당이
선언했다
여자가
아니며
샌프
본선
##묘한
죽어
해설
##보단
##쳐서
캐릭터가
읽고
조건으로
##임대
혼자서
##qu
추경
혼합
참모
나이에
반해
##투쟁
미흡
상대를
아트
분들은
실수
htt
##코가
아저
오고
##IP
##근로
PD
대다수
피로
희생자
##해주세요
누워
Sh
달고
사항을
되지만
##스트라
에너지를
당이
##ber
맞물
##네트워크
삭감
유명하다
##99
남동
1989년
문제도
압력을
아이템을
외에는
사이트에
이상은
이뤄졌다
법제
##3천
환상
오랜만에
올해의
사물
삼성전자의
우호
사회가
초콜
김정일
국방부는
##고로
지위를
원칙을
알뜰
##젤레스
희귀
##경찰서
유니폼
여섯
철강
##36
하수
내놨다
체류
끝나는
보인다고
부드러운
키우는
##하우
핑크
나선다
1987년
됐다고
##으려면
야당은
상륙
마이크
##바지
각각의
##홈런
자민
걸친
무시하고
민간인
일정한
전기차
경호
있거나
주둔
실패한
의학
##규칙
터널
##TS
중계
카카오톡
맞았다
##pg
##디가
##동맹
칼로
남해
오면
시선을
걸리는
샌프란시스코
방출
고려할
휴식
건담
협상이
상영
아시안
##55
##공학
정의당
##거야
##메이
##이었습니다
지혜
고려하면
지도부
##순위
##속을
마련했다
##동과
##실장
절대로
##베리
트위터에
비로
##세력
통일부
전반적인
신년
사과를
정례
AR
기업을
187
막판
초에
##발의
ph
모인
활동이
마비
결과로
정해진
질의
아이스
몰고
후퇴
##코드
터져
거죠
김한
##루의
지원한다
##노미
관절
이메일
다음으로
##하가
나름대로
우세
거주하는
빚을
##의회
금융기관
장기간
후기
감소한
현상을
난다
반환
미성
피를
끌었다
딱히
제국의
표현을
고마
##커가
##교의
수없는
있는가
##혁명
구름
진학
편의점
6천
모양새
전투에서
악마
##사에게
미래의
확보한
산림
##운이
죄송
영화의
##했어
##츠는
내의
##반의
가능하며
거울
편하게
스티브
##채널
제도가
상을
심화
구출
합의했다
##다니는
시험을
플라스틱
관점에서
신도
공격력
적자
차지한
위법
##ock
꿈꾸
내용에
결정한
##적이지
증인
쳐다
명백한
고스란히
전반에
이시
영화는
흰색
##페이스
드론
프란
##ann
디자인을
후보와
##대변
손해배상
##당했다
공기업
스페셜
패치
불만이
총재는
클로
코드
##라노
제재를
추후
진술을
수신
##온은
마련한
##파이어
대원
##닉스
##폰을
##타이
탄도
돼야
발간
##센터는
차에
본인은
미국인
##4천
##적한
크라
1일부터
##되었으나
멸망
학생들을
##금과
재밌
엄격한
일주
토끼
배터
교육감
선관
것임을
말라고
##카드를
결정적인
무엇인가
News
김수
가뭄
꽤나
작성한
포럼
곳곳에서
##만큼은
##케이
배후
하락한
##석에서
버렸다
토너
써야
blue
천안함
저를
돌아가는
아이들에게
불편한
##투스
2개월
##키아
##안정
본사
후계
##대행
아닐까
공적
수령
요구에
하이브리
주한미
이인
##디에
5분
##집행
이야기는
연동
##채를
자회사
##워치
##축제
##해주고
##졌기
통행
받았지만
전력을
잡혀
원고
앓고
존재하지
km
약속했다
관리하는
##적이라고
사랑의
주저
운영을
조용히
최순
##회의에
지키기
2학년
##무라
잠수함
부양
민주당의
불쾌
##국회
투자자
허락
소식통은
자리잡
친일
##겠다며
어르
##초를
##몬드
기온이
하는지
은폐
맺고
소홀
아이는
##하되
콘텐츠를
쟁점
하우스
보호를
##공화국
##신저
4개월
주사
선수로
출현
지나면
금융위
시카고
그라
합의한
신축
사운드
높다는
바꿨
사각
##대회를
팬들은
입양
적합한
쓰기
모으고
태도
극심한
연수
계획은
##RA
입사
##커를
중대한
##벽을
정면
부끄러
쿠데
보강
메리
본문
##az
마련된
##MA
고추
비공개
입지
최고위원은
합의가
사업의
두루
##음으로
국가안보
조언했다
있겠지만
스파이
상봉
##조작
내부의
오프라인
##결정
##터로
##급의
신장
##루스
은근
##e는
주체
##년이
자금이
나눔
동원해
구원
구할
자격을
##별한
인질
금융위기
##라기
방북
##방안을
##비한
명으로
##리안
##협약
사업자
##커는
기억이
기소됐다
길에
돕기
눈으로
찍고
홈런을
아이패드
묻자
자신들이
##구청
확대를
침체
야마
이어져
담보
##증으로
겨냥한
노숙
발견됐다
##미로
##년에
좋아요
집중적으로
##보안
일일
감면
##s는
제법
EC
헝가
##주자
늘리는
퀘스트
기뻐
도저히
과다
강동
어려움이
이루고
방송통신
점수
전과
##터테인먼트
유망
기성
개장
달러에
선고했다
다녔
##이었고
그러므로
말씀을
##중학교
밝히지
루이
포드
##PP
브렉시
후손
진심으로
팔을
인형
카를
카메라를
##여성
최근의
리조
학생들에게
힘으로
ST
참가한
회장과
박지
수혜
사회복지
일제히
근처의
상정
남의
청문회
약화
조짐
빠졌다
나타날
병원을
콜라
자아
##완화
떠날
제작한
작업에
인건
이외의
의혹에
역으로
제기됐다
판정
##티를
당하고
시민들의
떨어지고
##진한
발송
타협
하려고
국가에서
박탈
났다
##업계에
전락
감안해
##운다
단일화
##미와
더욱이
가지는
믿는다
넘치는
매번
4번
수업을
##one
팬들이
남북관계
대여
##하였습니다
아바
까닭
##뱅크
출연해
##경기에
##키를
##하실
전산
금품을
2005
위치해
화제가
구속영장을
##리던
몰라
물량
통산
폭격
기억을
##의의
미네
업계에
선보인
네가
초등학생
자신도
방에
고용노동
실력을
표면
안정을
신혼
선수를
ww
전동
미래창조
##는지는
재판에
장려
소극
성격을
증가하는
샤오
갤러
들어간다
후지
해적
피의자
##하길
취할
##바이트
경제성장
두는
최적
##거를
AF
##연구원은
많다는
##프와
엉덩
통합진보
응시
##신용
##주차
누군가가
##르드
신제품
맛집
GM
주된
애국
실적이
수소
과세
손해를
필립
대지
청산
심사를
대선후보
아르헨티나
주전
실질적으로
##가입
글이
##듯한
상승세를
직장인
공인
민사
심각하게
세인
배우는
##공연
논란에
계획에
5배
3인
##창을
##호와
끝으로
기술은
##종으로
죽는
##뉴얼
관악
시작됐다
##으면서도
다스
사실에
입수
메이저리그
의정부
납득
법원의
3학년
##정보를
때문으로
발생해
전수
##공무원
발표를
##시키지
조직을
행동에
연쇄
감독을
분석을
게이트
건강에
모범
##원인
보행
주세요
상당수
캐릭터를
셋째
##1천
내놓고
놀랍
발로
블룸버그
처방
팔레스타인
##af
파고
##주식
은하
##석으로
##크스
면허
숨을
직전에
파격
인테리어
마이너스
아래에
##폭탄
활성화를
##라이더
전경
##통제
개인이
##벌이
##어졌다
높일
##약한
돈으로
소니
영하
포도
헌신
집착
대표적
날개
불과했다
반짝
##현실
##현의
문제점을
풍경
##지노
모순
국가정보
처한
AT
행성
일으키는
보라
스트리
상원의
타이어
이세
##러드
##병으로
쓰면
솔직히
##쟁이
부풀
나오는데
##만여
코믹
페널
견해
동행
은행의
유세
##버스터
입는
##라비아
이미지가
미래창조과학
짐작
중지
제안한
##우러
적게
##메시
선호하는
장남
생생
오류
##지는데
발탁
죽인
기숙
공정한
##재의
결정하는
일본과
육박
게임에
감싸
##네스
재검
발언은
이석
나갔
상하
##분과
청탁
##채권
방식의
##졌는데
상대의
나라에서
성능이
주머니
총장은
뒤에는
모터
추첨
##미르
재차
아쉬운
##린은
취하고
##였을
승인을
일본을
못하도록
마이크로소프트
연구팀은
없으니
에볼라
국가에
주부
창당
##베이스
크기의
혐오
##정부가
한명
가혹
##하듯
백인
9개
##책이
A씨
##능력을
머리카
News1
정성
특이한
4강
듯이
구체적
##인데도
상승한
다큐
원인은
상기
훔친
##모의
##어리
근거가
정권이
타자
가자
6자회담
원인으로
##작전
라면서
##불을
관중
신당
##었는지
조약
##계약을
##심에
공격으로
인하여
생애
처분을
대응을
바라보는
체제를
이식
어쩌면
##ect
못했고
##동에서
##역과
합리적인
의식을
재임
##저널
없었다고
에버
여기저
##카페
회원국
##버리고
의무를
##재산
각성
써서
보험료
해보
##속에서
기습
##과에
맞춘
벌어졌다
여야는
##롭고
대단히
자격이
##공급
떠나는
8강
쉽다
이들에게
상가
알아서
내걸
##왕이
요인
양이
대학에
가난한
흐르는
기록이
확인해
계곡
모티브
K리그
잃어버린
아내가
##77
##활성화
주인공이
보상을
여파로
##족의
##OU
##토론
##이도
주문했다
관통
텐데
매월
시점에
##왔습니다
휴가를
휘두
요인이
전투를
##주의의
##나서
원래는
줄이기
민감
세종시
판타
되돌아
2년간
달러로
도모
기증
선대
허가를
##차이즈
10년간
표결
##지마
때로는
민정
##돈을
들어올
가만히
전의
트랜
적용해
사람으로
안양
어긋
##전선
방문을
TF
휴식을
##변을
진주
조례
관계로
목표는
날카
박주
##처가
작품의
##98
밥을
##에겐
##스포
태극
순찰
사용하기
제외하고는
키우
##제공
정당한
신속하게
초콜릿
배제할
##르도
##시기
##석과
예산이
##적이었다
2세
##분양
퍼져
탐사
귀가
##서비스를
착각
##차게
##두로
##판의
고사
소비자가
##제도를
쓴다
쪽이
구형
바가
약을
데이트
보았습니다
연내
닥터
고객의
##대통령
기가
1년간
인원
##ary
여기는
다시는
포스터
일으켰다
##통신은
둘러싸고
경제부
기금
주무
동굴
분의
##앞에
세련
의하여
서둘러
파크
오키
포함됐다
저하
더구나
##교회
돌아갈
돌아왔다
머리가
예선
오렌
##년을
점유율
남을
드림
##방으로
기관이
바쁜
##기간이
말하며
서면
집이
파손
##전에서는
나눈
연구개발
체중
할수
##OR
남는
여성들이
돈은
##연수
##았어요
##러블
##지역에
페스티벌
유예
##받는다
선물을
지시를
위생
프레임
이하로
보이스
얻지
##가들은
추가된
일일이
##온이
최소한의
김병
##르몬
##33
##십니까
무대를
정기적으로
앞당
카라
거예요
드레스
죽음의
불이익
지는
모욕
시작했고
##수급
신상
공부를
##포로
과징
KTX
친구들과
일산
뚜렷한
애완
승무
##게요
불공정
짓고
부총리는
소음
유산
투자가
곳도
사막
않기로
##모임
내년에
##자들에
제품에
말아야
##ice
이며
불린다
이산가족
내년부터
무게를
5억
제6
리스트
선수들의
저런
혼란을
바둑
##컨대
##병의
대놓고
명확한
라스
삼성은
##스럽고
하겠다는
##ld
##ae
못했다고
지냈다
맥락
도요
뜻이
전두
추구하는
금감원
유감
인생을
위원장의
없지
롯데그룹
우려도
낙하
돌연
##잖아
##나가는
##무가
아이폰6
팬들의
관련하여
LED
로그
제목의
부의
원거리
UN
도출
##지역의
프로토
##라인을
발령
모델로
식민지
밑에
실버
분명한
분석해
기자간담
위키백과
거기서
세르
프로그램에
선행
근처에서
칠레
##GM
확인하는
인턴
연기를
저널
수직
하도록
이의
추출
##잡이
되풀이
112
이사장
##베스
##우와
목소리
극히
40여
역사의
Th
아들의
SC
##쉽게
영감을
감자
고지
구미
350
빼고
##명에게
지방의
중이던
##부대표
##사항을
##이동
장점이
도입을
하도
쫓겨
##500
##번호를
##내에서
하나이다
아카데미
상습
남기고
정동
김씨
jpg
##서스
프로젝트를
문화체육관광
10억
직권
여전
창설
구사
##커스
##권도
##열이
##격하게
하셨
꼬집었다
설비
법원이
인정하지
##주의적
소문이
##전시
##일까
##밀하게
##홀딩
스프링
회견
모리
자랑하는
재미있는
##ver
##들보다
VR
사회에서
만만치
언론은
되어서
주연
자고
##포먼
마신
샌드
방식이다
박씨는
1등
성형
것들을
미성년
콜로
검정
장군
비준
고쳐
컬렉
국제사회의
튼튼
##소녀
라이프
공룡
상시
치즈
금품
승리로
MC
##판으로
환자는
##추천
구하기
드문
낭비
금액을
베어
##더러
현실적으로
먹기
마늘
일본인
분석도
##중국해
정책의
물품
전성
전체적인
캐롤
태어났다
kt
후회
크루즈
ICT
역설
1학년
아픔
유학
어렵다고
##디를
책임자
후보자가
야기
자부
국회를
집필
삼각
am
##보조
예비후보
##46
##차와
##하겠습니다
농구
부른
차이는
행진
핵무
수상한
넣는
입맛
운반
##과정을
만나게
강조한
##때는
##레나
##따라
앞으로는
필요는
확대하고
미용
##밀리
이번에도
부모의
##aver
기준금리
신종
조사는
100만원
규탄
속한
1명이
쪽에
유방
장관을
7천
실리
재해
되기도
에도
베이비
꼽히는
동화
종업
측면이
만들어야
웹툰
##스트리트
##발로
끝나면
친박계
중에서는
비닐
언론의
소재로
만기
##명에서
아이디어를
빼돌
##sk
때문인지
AS
고장
이윤
비핵화
등재
##린의
캐스팅
숫자
##화해
스승
자리가
##원들의
과반
상생
##연합회
##작가
지경
##ear
연결하는
알려지지
인근에
비춰
거부했다
상식
사육
한양
역을
책은
결정은
##신과
연구는
됐습니다
##축을
DJ
거다
자세를
업계의
내구
국무총
열려
전국적으로
입시
3시간
정세
##측이
##사무소
들어선
유성
##왔고
스탠드
여는
예산안
형태를
4억
내기
##병은
나머지는
명확히
##사단
광범위한
##AR
해를
일으킬
구호
준비하는
읽는
고위급
##독한
##소리를
메시지
성별
##오카
항소심
A씨의
반사
##가게
정권을
브래
역사가
치안
싸울
한국은행
##ach
사라졌다
성공적인
연일
플레이어가
딜러
표를
경우를
발생하고
노동개혁
고작
고집
당당
요소가
##닷컴
관계는
위안화
세우
공식적인
##OP
##2000
챔피언십
뚫고
FIFA
부통령
것이지만
한복
음란
윈도우
조롱
##주며
대행
달콤
인물로
호수
심해
많지만
불황
16강
##개입
작가가
식별
아버지를
바람을
##말이
겪었다
활용하는
압도적인
프랭
산업통상
##에서다
1980년대
구금
재고
관람객
##담보대출
여자는
규명
##교수
용서
1루
스포
비만
##직자
콜롬
조금만
동북아
4조
초월
퍼포먼
발생하지
##립을
##저우
메모리
죽이고
감옥에
##기간을
때문이었다
레전드
구로
##산에서
##병에
매출은
##대회에서
##쓰고
##루는
확실하게
2004
예로
강력하게
낙찰
라면
권유
정복
김씨가
로스쿨
밀접
대상에
뿌려
좀비
교수의
법의
남아있는
안보리
조준
손쉽게
걸렸다
북한과
파생
##통에
대성
의미다
차량에
메탈
법에
김지
##a의
되어야
20만
##37
##하고도
뉴스를
대포
부부가
##타와
기득
총선을
##모씨
청와대에서
##료로
일괄
##측의
화해
도시를
박물관
##ail
##오로
전달했다
고려대
##ond
짓는
회담을
많았고
있기에
캠페인을
사망자
에어컨
올라온
배럴
남성은
하나다
LC
조건이
팀에
시원한
##후군
얼어
비율을
역할이
어렵고
모의
미나
게임에서
##훼손
전문가들의
계속되고
##att
세력을
챙긴
##글로
하나하나
모델이
Bl
어울리는
101
발생한다
요청한
이상인
##문화재
어떻게든
오프닝
귀찮
##슈타
##속으로
피해자의
##AC
묶어
비슷하게
폭염
##다며
대중교통
다운로드
산정
##츠의
거리에서
##해준다
없었지만
가라앉
데일리
##업체인
사쿠
##급식
강화할
데에
뭐야
용도로
빅데이터
초록
##개에
타당
작가는
##까봐
www
기조
크리스티
##38
##였기
모르지만
논문
전철
서로를
바르셀로나
군대를
스태
Sp
마이너
##파와
고래
국가는
만나고
시켰
##나들
침공
존재를
들지
##마한
mc
달리는
##교과서
싶다는
있습니까
##없고
##일으
파이어
강정
국영
하버
그곳에서
시대가
사항은
화폐
##사업에
작전을
강서
신념
견해를
하겠다고
환자를
목적을
사정이
취향
##서부
이어서
너희
데미지를
선정된
정찰
확인된
때와
케리
##용의
춤을
설명하고
뜯어
##워야
##언이
수강
메이크
혐의에
필요합니다
외계
##전력
방식은
MV
##렸는데
SP
살해한
낡은
인스타그램
남성의
##ure
곡을
##란이
##iss
직원은
##ON
뜻하는
확대해
하이브리드
정몽
반전
잔뜩
지갑
당신을
넘기
비용은
심상
명문
##도어
느끼게
##여대
평가다
나라는
##면적
공화국
##는지를
##함으로
아나운
메신저
출시한
서울중앙지법
던진
##연은
##oT
##님께
바꾸고
성희
필드
상주
관계자들은
##지거나
요양
저작권
분포
스트레스를
##이거나
마녀
저희가
프로그램이
##소방
##신으로
나카
토트
사이트를
해외에서
스킬을
받아들일
하여금
KBO
부임
##이랑
##피탈
높아졌다
산업통상자원
서울특별시
가져다
뜻으로
아직은
##TC
영원히
사거리
스폰
##토는
지나친
전진
시간과
냉동
낮추
##디움
##글라
호기
Ar
대부분을
##문제를
##일과
다이어트
목적이
벽에
##시각
불필요한
귀여운
##이었지만
수험생
분위기다
적시
호소했다
우위를
학교의
원내수석
날을
##체계를
연설을
창조경제
하와
##포스
an
##크림
차례로
문제다
부친
녀석
마다
실험을
수있었습니다
##34
파산
되살
##재생
지나가
중요하다고
자신감을
##학회
보여줬다
간신
시민의
##pp
속성
나오기
##청구
있음
확진
바위
소액
나누어
없음
두려움
차로
##서치
일어나고
50여
대충
무섭
촉발
부합
1986년
##례가
대국민
기둥
중진
협회
오로지
이외에
예수
##군사
건물이
정진
주방
의미하는
##학원
순매수
대상은
##커의
민병
##국장은
침투
105
일요일에
펼쳤다
하늘을
이곳은
부수
신사
사서
포기하고
##더는
라틴
만찬
승무원
생각한
제치고
##LS
휩쓸
베테
##제재
##텐데
부장판사
혐의가
오피스텔
막상
비틀
승격
##니스트
##내야
사죄
외출
국민적
재개발
##량에
조현
##났지만
지사는
탄탄
고구려
##변화
##하여야
가르쳐
가산
##환자
요즘은
합작
도중에
고객을
II
대대적인
##이한
아닌데
마지막에
다음은
의원에
##결과를
차량의
이끌었다
##이치
고객에게
부회장은
##미에
진단을
하에
오찬
친구를
##조치를
시신을
홈페이지를
입에
##사기
들어가면
행태
인정한
사용된
지속될
##위안
##학습
최하
죽고
반기
유나이티드
정서
이어갔다
3층
리콜
넉넉
MP
##하였는데
##보유
장치를
프랜차이즈
관리자
##크와
원이
최후의
한자
파기
칼을
##량과
용역
##정부는
김영삼
랜드
실패했다
##회계
##목에
단위로
스톤
실수로
말아
컨텐츠
측에서
##년의
유령
이루는
불명
##기관이
##특위
성희롱
취해
한숨
석탄
자의
##심과
연평
있나
국세청
4명이
싶었다
업체는
조립
선수들은
반격
일선
계정
고맙
경력을
4회
##하자고
삼고
한계를
진도
##코스
마리오
밀리
##레를
##회관
전망을
최우수
크기가
당시에
무제한
늘리고
열대
나폴
8천
명에
나치
##그리
도난
고의
법안이
갇혀
태양광
입구
친구와
월요일에
엘리자
##됐으나
##간이
##급으로
##시청
쌓여
게임은
900
##류는
##ys
서로의
보여줄
전적으로
iOS
3연
되었으며
로저
커졌다
우려했다
##BI
좋겠습니다
소비자들이
토니
확대할
후보에
3가지
피어
나이지
##DC
실시하고
##사실
각국
설립된
받았던
증폭
과감
밀양
##유산
##르다
광명
레오
도약
##마이
댄스
무단
##야의
더더
##등에
동대문
내용으로
##학년도
##불이
액세
##라에
사이로
매출액
내부에서
감사를
##업자
주파수
단어를
어르신
수단으로
구역
공조
##가서
속속
도서관
돌아올
중이라고
이준
채취
이순
있으
교차
농어
획기
##속도
온도
행보를
방문하는
예전에
일으켰
쓰여
잃었다
막내
선언한
연평균
##차례에
##훈련을
대책이
##보도
##아니
띄는
천재
효과적으로
##박물관
##근무
불편을
신선한
긍정적으로
적으로
##해운
북극
제7
##버려
박종
높다고
신성
좋습니다
##하자마자
감추
손이
##주에서
모두를
##oo
##방안
##디의
##길래
리그에서
타카
지상파
분석된다
문화가
모두에게
프로야구
불러일으
군산
반군
찰스
장관과
SW
지지하는
비전
분노를
수요일에
카지노
##싸움
걷는
아내와
##류에
다카
월스트리트
봉인
있기를
법인세
LH
##역사
상공
##방울
기체
시술
평화를
이뤄지는
적폐
할리우
예의
다니엘
요약
균형을
어우러
줬다
##교육청은
직원을
제기된
나타났습니다
초기에
cl
##구니
년의
북동
##자리를
길고
종일
꾸며
##사키
##ott
문건
추종
금리가
안을
LG유플러
KA
불행
보호하기
관리가
다툼
섬유
국제적
CBS
끊이지
말하면서
2위를
어마
지냈
같지만
준비한
깨끗한
부당한
행동이
달라진
##T는
나서야
화산
척추
금연
웃음을
우리도
SUV
일할
시아
마음의
별개로
인력을
보물
뭐가
주인이
이뤘
김승
걸맞
가이
환승
공안
않자
##상환
함께하는
사용했다
간단히
##크래프트
떨어진다
정상회담을
##리거나
##ern
##으로만
불과한
아버지와
mar
판결이
하원
국민들에게
불출
발전에
정도였다
대표로
##iel
1985년
이화
디즈
나오면서
##참모
밀집
얻게
당을
##증은
##겼습니다
추가적인
##레는
경위를
술에
탄압
동의를
기술로
기관의
지루
견인
군이
주말에
영업을
마인
대면
찾아볼
자체의
가다
승부를
덴마크
밝혀진
##오염
##하는게
행사에서
##직에
조사결과
끝이
##ile
##유통
자유무역
기용
대학에서
내면
##하마
브리핑에서
##스트의
##태평양
미야
후쿠시마
내놓을
정상적으로
병력
##캠프
ad
낮다
##드라마
몰라도
총리와
차량은
환경에
시간의
주어진
표정을
360
비유
동영상을
승용차
노선을
##인지라
예상보다
홈페이지에
마련할
요르
시속
##100
왕이
##88
만들어서
185
강등
가슴이
기대할
##토로
##위권
IoT
철저하게
화요일에
토요일에
해당한다
지원에
헬리
있긴
소울
##스톤
##하기에는
맞을
블라디
소비자들의
마시는
##오지
지수
중요성을
구글은
임용
친절
오르고
실어
어딘
당국자는
멸종
줄기
소아
주면
장소를
타이틀을
올해도
기록해
어떨
##자책
##기관에
1개월
나옵니다
##빨리
##제작
협조를
논란의
##시브
서울에
##방은
전체에
괴물
살균
##겠지
둔화
잦은
##44
높아진
갖는다
살아있는
끝났다
출자
##만원이
##달러를
엘리베이터
##품으로
단원
전국에
##테이너
##오리
그것에
1주일
같아서
##것으로
만드
소행
가습
건지
##티스
##TO
맞대
피난
돌진
##ial
##주도
소문
##가인
버스를
위주의
예쁘
생긴다
적당한
이전에는
##보의
##편으로
정상회의
벌어지는
세계적
서비스는
##비서관
시즌에
탐지
로빈
크다는
의약품
권위
국민들
##퇴근
일어나지
주장도
##세한
전복
##보았다
고등학생
##킨다
##조한
##증에
##그룹이
인터넷을
튀어나
틀어
화면을
##탄이
##정상회담
##래스
매출을
보류
올라가는
##면세
여부가
##롯데
요원
손흥
##외선
20분
맡게
마감했다
맺은
중점
구입할
뒤인
사이가
비정상
##러의
베테랑
콜롬비아
사이드
때만
##세훈
설치해
펼치고
조언을
봤을
기술의
도시로
수준인
주민등록
증권사
사태에
##블로
등장인물
##형과
방문객
하트
naver
##레가
근절
남자의
뒤집어
탈레
##타수
##과세
##궐선거
관련해서는
참여하고
간신히
짓을
물러나
야스
누리과정
##age
앞세워
하기로
투입해
이끈
##예방
추궁
당국에
노릇
##상도
만료
가담
시드니
워터
가능하다는
LI
제1차
1년에
소중
품고
디아
아이콘
쓰인다
시작되는
들어가서
낮춰
##자문
염려
삽입
믿는
연체
병력을
의원총
압축
오락
보병
내년도
2부
##고리
##하진
브리핑을
##고용
##책으로
##호흡
##공이
버지
학교가
해지
살아가는
간섭
사모
##분한
노원
모델은
##납니다
뭐라고
용납
성완
참으로
행위에
##sp
##법안
중기
많다고
왕의
알아야
여름철
압박을
서초구
##인력
행위가
실수를
신부
12개
##들에게도
##화에서는
않겠다
5회
벌어지고
약탈
간담회를
이사회
##피는
개념을
법칙
##마와
악의
동서
##인식
절도
박수
##방어
##빌딩
이글
활동하고
말하지
이원
##범이
향하는
고고
처치
농담
영국은
대표이사
제2의
계신
호텔에서
샘플
##타이어
##능한
터미널
공격하는
업체들이
블로
주변에서
피부에
폭이
활발한
반면에
압수
금강산
##enn
중형
매진
지난해보다
불합
인천공항
사단
카드가
성장률
전액
선보인다
많기
##사회의
이보다
발부
당하는
##배가
랭킹
##파에
전제로
##LC
간혹
비로소
기사가
사용된다
방송에서
데스
##가들이
소득이
인물이다
##락이
토론을
기업들은
##달러로
계층
##르면서
영화가
다양하게
옆에서
사라지고
더러
친한
##구리
##DA
##각이
걱정이
상태였다
60대
토마토
##내려
애널
회의에
여기저기
요구할
##중심
복제
5개월
쪽은
비자금
공백
리듬
##위험
1의
중장기
미끄러
2개의
일시적으로
정책은
낚시
소프트웨
지뢰
조카
주장이다
고리
기절
##방해
##ett
전역
대우조선
맡겨
도구
##목적
##한의
예멘
나노
마그
아이스크
##님들
##터에
그녀와
직원들은
못했지만
미사일을
공격적인
움직일
##터미널
자유로운
환경이
공산당
충성
노조는
아이들과
컨설팅
##DS
3분
예상됩니다
EX
국회법
퇴출
부분에서
마술
잘못을
##린다는
있었는지
실시간으로
오페라
공지
대마
쉽고
##열에
기준에
1월부터
##라이트
프로그램은
##택을
대표이
사례는
발견한
이뤄지고
발견했습니다
노사정
답을
수거
##산업의
제공한
싱크
경제학
전두환
목소리도
멈춰
플레
##기본
##쳤고
리베
국적
암흑
사살
##모는
지시했다
안정적으로
맑은
포격
아기를
오늘도
##번째로
힐러리
연초
##업체가
여름에
대사는
시가총
##협회는
##좋은
##47
삶에
좋지만
명중
거뒀다
축적
##투어
SA
밝힐
주도한
내부에
이어가고
직접적으로
봉쇄
정신이
두께
신호를
협동
##령은
피가
##월드컵
국토부
##금액
출구
1500
무기로
후보자의
인정하는
국왕
임금을
훔쳐
##테일
A씨를
했어요
강조하고
페널티
##부지
깎아
원조
주택담보대출
KT는
천만
그러니
##상이다
적당히
똑같
차고
##오면서
안돼
무사히
뜻한다
##해야만
여유가
##분들
포인트를
모르게
성완종
##기술을
내용도
수비수
G20
서울고
세균
착한
##있어서
그룹은
첼시
배운
마나
않겠다고
125
미치
##교도
걷어
##규제
맞다
절약
분해
지정된
대법관
2기
가디언
지구의
이경
##m의
전쟁의
아니기
강조하는
스타트업
악영
폭으로
선거운동
1사
보전
목욕
조금이라도
2명을
양호
부사장은
라인을
국민들은
##번의
##y는
##로만
낙관
증상을
이루어져
JT
##사관
우리은행
##종일
##여명의
##소설
표절
##공사가
다해
내놓았다
사람에
##십자
원격
구성해
수행하는
자이언
##기나
단백질
##리얼
##노스
유력한
근무하는
##적으로도
걸림
태블릿PC
유지했다
##님께서
직원들의
정식으로
발언이
실은
최우선
다큐멘
하반
공고
태그
도로를
로이터
화합
됐고
효과적인
##졌으나
##먹을
##당해
##림의
전일
##록을
좀처럼
##방법
##복합
휘말
제작된
ex
##오면
##업체의
##oll
이해하고
연구소
##상한
##때로
일원
영상이
적에게
작용할
라이언
##주었다
발견하고
다닐
편지
신용등급
AFP
WS
##전부터
거부하고
적힌
##일수록
가드
달라는
강하다
아프간
##ens
##66
##95
벤치
찍는
오기
인터넷에
합의에
2002
##있는데
1984년
느꼈다
가족들이
##위원장의
남지
##부인
이어진다
안티
보고를
넣을
##수술
공약을
일축
##비디오
절차가
행위는
기업인
2003
##uk
가파
방사능
해운대
맥도
서포
버튼을
섞어
이용해서
기업과
경찰서
원산
반영한
싶다면
공제
사진과
전국에서
귀환
수치다
뮌헨
##으라고
피곤
어째
##들까지
##했으면
정리해
생산하는
다닌
내밀
숨졌다
저축
##중의
러시아가
모듈
제출했다
##동강
학교는
빈번
휴대전
버리는
보건복지부
동구
심어
##리노
양극
잠재적
동남아
주의를
폭스바겐
독려
볼넷
##스틱
##방식
스틸
법원에서
영동
항해
소수의
수수료를
김형
되었는데
남편의
자원봉사
국감
플랜
##와도
김연
낯선
##가기
##은이
##비행
환경에서
##났을
##rig
살던
박성
불안한
포지션
추징
회상
##세다
유적
있음에도
##센터에
러시아는
##수엘
##연설
##ris
##비리
대응할
성분
##기반
정도에
앞장서
방법에
쌍둥이
마음대로
##총생산
상급
##ory
남중국해
가능하게
앉아서
##링이
제의
##회관에서
지지율이
바보
사용자의
내무
샤워
대권
마켓
##학기
##사법
줄곧
대학원
순서
신이
##필드
아틀
공동체
나쁘지
3당
광장
아닌지
6만
랜덤
플레이를
하천
제고
있다면서
격파
재확인
수입차
아테
##실장은
분담
플레이오프
대접
소상공
깨고
유지하기
가격으로
아니라면
정전
재정적
듣지
온다
단점
울트라
적용되는
표지
삼성의
##포가
공헌
##주교
타운
비트코
조별
독서
주목할
최고경영자
적고
##75
나왔습니다
안동
있어서는
남용
##곳은
김일성
촉구하는
##변호
급식
교장
##적이라는
방안에
언젠가
증여
가능해
John
타율
숨겨진
관련해서
안겨
착공
이해를
파울
수치가
가사
##편에서
순이었다
피해는
1970년
대회를
스스로를
중학생
원화
년이
요소를
육상
죽이는
##ace
위치하고
가득한
##DB
외국인이
연구가
도시에서
지도부가
##폭을
##하다며
##천군
활동하는
##구성
살기
입금
한류
##벤처
겨울철
실장은
인문
빅토리아
학생은
망가
포위
토트넘
조사할
##ash
말하자면
##겠고
##민을
알았
##됐기
불펜
나누는
함정
##플레이션
쏟아져
##기관인
##값은
현대중공업
케이크
강타
시그
과목
##일드
무리가
내용이다
서비스에
여당이
평등
명예훼손
높을
어드
##ES
로맨
박상
모습도
재미를
부재
##스틴
종결
아오
타이거
추진해
처리할
##원장
만들었습니다
중점을
10만원
채팅
##BA
산업의
##적일
집회를
아담
전셋
운영에
실시했다
1982년
운이
벽을
정관용
쥐고
박모
속에서도
건전
##임은
늘리
취약한
교역
조속히
##회사의
벗어난
제천
기다려
법사
일정이
드러내
인사가
초고
##님과
줄어드는
빛이
데미지
김씨의
##제품을
테러리스트
이대로
이니
폭력을
신흥국
학과
주변을
반응은
강화해
발목을
오케
##루미
친구들이
휘발유
##망에
##지역에서
넘은
무엇보다도
사외
사마
엘리트
##츠가
드릴
원에
추운
회사에서
실전
주자
영문
제트
##밥을
on
참배
발표하고
평일
가깝다
감찰
여기에는
상담을
##봉을
준우
아파트를
총알
지적을
버지니아
미얀마
경영권
베네수엘
청와대의
대학을
##하시면
어머니를
NY
리모델
좌파
##는다면
구글의
방역
오렌지
중이며
관리에
명의로
##청사
##난을
se
코코
단체는
조직의
가슴에
선보일
수만
안되
유럽에서
출제
빠질
난이도
자율주행
##ung
지키지
박재
높아질
나갔다
이르렀다
고민을
안나
##네가
왕자
나눴
연예인
졸업생
법정에서
작고
해석된다
국고
하마
플러
런던의
장사
길로
죄를
아름답
헤르
말부터
내세워
##세인
돌아오는
길은
두꺼
가리지
##드리고
코어
##럽고
##렸으며
부르고
##에너지
김선
##결이
저렇게
죽음에
##냐며
아이폰5
1945년
거북
정보는
해경
국민은
교원
방패
조합원
체계를
나이지리아
열리고
##들과는
유키
##희는
##메리카
##마일
년대
##면허
노리는
성을
천정
가져올
한마디로
폴리
##효율
비자
##터와
##증과
대사를
가상화폐
실정이다
##지지만
##칭을
5조
할당
국가주
증정
그렇기
시기가
##이었으나
##이긴
징후
##는지에
열람
한번에
##거는
1983년
보고서에서
##눈에
위협이
의도가
앨런
메르켈
몰랐다
##유치
203
##가면서
아세
##여름
제기된다
왔을
##타입
초중
수출이
산악
##결승
##뚱한
국장
폭락
것과는
##대원
##론가
결국은
지켜보
대단한
특정한
자체적으로
넘어선
정글
보니까
##란의
리처
가맹점
##스에게
##ier
빠르고
오후에
따르는
끼고
기상청은
되었다고
훗날
크다고
단편
대신에
장기적으로
수백만
빛나는
가습기
##수리
##전용
토마스
바나
않느냐
잡힌
구해
영역을
우익
서울시가
1위에
본격화
열악한
오너
1979년
수중
전망도
내륙
비치
개체
폭넓
확보를
부총리
발언에
이천
요인으로
핵무기
무리한
밀어붙
기차
나라에
##했나
안팎의
넘긴
출퇴근
왕실
##안에서
드러낸
2의
수련
사라져
부인했다
le
쇄신
딸의
귀를
프레스
##혈압
어색
당기
##클리
경기장
적용할
맛있게
키가
주가는
##사리
1군
3개의
안성
재선
##봅니다
시절에
스텔
##ox
남기
일러스트
수년간
디자인이
어렵지
특징을
안의
sc
시절의
공격은
서울과
연맹
임차
몰락
제품으로
엔지니어
##오던
어머니와
국어
후유
퇴임
표정으로
##황을
Cl
바이올
##경기를
죽었다
마을을
도내
그레
원으로
죽여
아크
단계에서
순수한
확정된
때때로
##곳으로
비슷하다
##스피
채소
##수단
##티는
발렌
없이는
TH
설명하는
비하
##속의
불투명
re
통영
빛의
##중개
드라이버
능력은
못했다는
##되기를
지식을
날은
캐릭터의
장소에서
##청에서
명성을
너는
하려
우즈
떼어
##지던
티셔
구입한
햇빛
순매도
##항에
사자
판문
음원
됐다는
##타임스
미만의
찾아온
##여자
##플라
##거라
##비치
지나가는
간단하게
장마
초창
##동원
확보할
미지수
ab
정류
가슴을
선수의
##ies
실린
몸매
패키지
패스
공산주의
올스타
막강
##쾌한
얼마든지
##시스템을
준비해
청와대와
##만대
국무부
기여할
개정을
새마을
JTBC
드라이브
##테르
걸음
재편
##화되어
박병
##per
동안의
필살
학생의
확대하는
던전
꾸려
혜택이
##린을
##85
연결된
##받게
양식
##보이
브레
##더를
##언론
인양
여기에서
더더욱
tit
##비트
안타를
메디
##수당
##봐도
발주
팬들에게
지원해
##티어
넣었다
먹지
##Hz
해결하는
##층은
##65
원내수석부대표
시작된다
줘야
상징하는
국내총생산
사이트에서
임진
체코
##유출
국가와
급격한
늘릴
노르웨이
##anc
상임위
사직
달래
##바는
국정화
같고
##인데다
4배
생각도
공업
싸우고
원본
이렇다
##명령
예컨대
지칭
##량으로
Mar
##노는
##우면
인기있는
##가치
확률로
위원회
구두
##밴드
##조사에
컨테이너
##ix
KB금융
나서서
휴게
음모
안토
절차에
처음엔
정부도
문화적
##처에
줄줄이
##ml
인사들이
요구가
맞붙
사촌
받아서
쓰러뜨
왕복
피에
자랑한다
법적으로
배울
주축
바지
##피가
국민과
싶을
IB
배우고
팽팽
우라
요청에
원숭
진단했다
담뱃
##란드의
권총
매장을
금융투자
징계를
##전투
##철이
blog
달걀
##터테인먼
배임
구글이
프로모
씨에게
성관계
WSJ
4위
방금
11개
##ale
할아버지
알았다
때문이
자녀가
판단하고
##49
서류를
##바의
##중독
명동
직원의
3점
바뀔
소장은
지급하는
느낀다
계시
집은
최장
##가능한
삼성이
도입한
모호
믿지
인간을
##39
금융권
소총
키우고
2분
있죠
##멘트
##심판
##IT
상자
상해
##유는
등록금
함부로
수산
않겠
받았다는
용이
##저를
##박이
An
그러다가
퀄리티
이유도
보여주었다
교육부는
닮은
##시키며
뚜껑
배경을
수년
좋아서
초보
##관리를
이한
주석
##다를
아시아나
당정
실리콘
수시
##으로서는
상점
범위가
기점으로
업체의
##대변인은
##면은
##작은
2연
방탄
구리
박용
##유지
촬영한
##센티브
##만으로는
어디로
이후로는
훌쩍
##강도
차려
디스크
영국과
##LED
형편
공장을
브라이언
테스트를
##자로부터
알리고
##교가
##아도
##타자
여론을
마리의
출연한
##중에는
미소
##발표
해줄
##장관이
네팔
##트랙
매치
영세
끼어
내용과
리드
해병대
##실점
연인
생계
김희
노리고
세웠
조류
페이스북에
##ms
체인
헬리콥
각자의
가로막
##팀장은
구성을
세로
신동빈
신분으로
성적이
알렸다
남편과
매력적인
읽을
재학
협상에
어디에서
##리라고
통화정책
걸었다
습득
##구치
4시간
로즈
계속되는
##소리가
비판하는
시스템은
##플래
강구
견디
선수들을
TV를
##홀에서
않거나
최순실
선원
적었다
자본주의
##메이크
있답니다
꽃을
왠지
##6천
무방
##장애인
특별법
위협하는
싶어서
받아들이지
동방
패러디
면적은
확인되지
당직
##메라
##사나
오라
죽일
한번도
일곱
주도권을
존재가
코트
유상
표정
차이로
##HO
탐험
부적절한
애널리스트
받기도
밤을
반찬
산타
##일인
돕고
구매할
했기
정치가
일이라고
##ham
Pro
반발하고
백성
가정의
##하고있는
##경비
신속한
알라
생략
정직
실려
관측도
설립한
침대
올라갈
시일
그림자
국경을
일주일에
보도가
##청과
올해부터
코미디
찾아야
성분이
방을
가면서
115
황교
사우디아
##줄을
망명
개량
전승
요금을
온몸
##작으로
##ite
후반에
NLL
노부
매력을
주입
증가할
늘면서
획정
변화는
AC
##반에
##스킬
납세
계속될
부작용
일한
형평
발음
화살
악몽
##놓는
##건지
##출산
의석
##ove
콘셉
소비자의
판단에
##들에서
계단
원하지
필요성이
##커녕
##어에서
세일
벌일
격차가
무승
##금속
마라톤
##위원회와
##86
생리
##환은
공사가
MA
공직선거
열정
살이
선별
##국적
정치에
연속으로
##정신
똑똑
출하
회색
어마어
선거가
졸업한
육체
차이나
거꾸
##들기
카운터
##업체에
마디
짙은
기대가
어렸을
콘크
형을
##선생
정책과
법안은
##리스는
전쟁에
be
의문이
손꼽
확보하고
말과
원칙에
pro
기구
##avid
##애나
시중은행
##플렉
기쁘
사교육
##점인
##더가
한시
다리가
##드린
의원에게
##냅니다
사용자는
기술과
논의했다
거짓말을
멀쩡
##량도
시절부터
초기에는
지었다
200여
구석
로렌
묻고
아부
북아
##효과를
초상
##감치
김한길
아미
평균자책
적자를
##릭스
마산
비행기를
대선에서
연구위원은
부문에서
보도를
인센티브
양을
거는
뽑는
##미래
##았기
거칠
커진
2로
연락이
##급적
낮게
이고
남측
##하곤
##르를
##ina
재활용
##쳤다고
에디
진전
##보수
Un
노골
개정안은
6회
##네스코
##소시엄
치른
##자다
##주신
##반도
##셀러
안경
부분도
공천을
과천
##팀에
중심에
벗어나지
당할
주위에
바뀌는
##되어서
##매체
주차장
발목
가능하고
아쿠
테일러
DM
사우디아라비아
##네이
허브
경제민주화
문화의
들어서는
연다
##자라는
##너는
You
##체제를
않나
사이클
##선진
공짜
왔으며
##다의
덜어
미소를
북서
방송에
세상이
가늠
선착
자세로
##인지는
창단
번씩
레바
취지로
스피드
즐기고
임대주택
##보스
백신
평화와
##베리아
지킬
무언가를
혁신을
경제정책
##플루
공방
깔려
브랜드를
만이
즐겁게
하드웨어
키스
청춘
##모리
도움으로
##변이
문화예술
##7천
놓인
##레이터
##주간
##츠와
##지휘
국회는
돌격
아티스트
이탈리아의
일과
작품이다
꼬리
2호
##축산
반영해
성실
오일
보조금을
##차도
원로
중국어
시뮬
쏘아
변호사가
##76
그러던
옮기
소스
넘지
##현대
경부
title
군수
기자들에게
메카
겹쳐
슈팅
법령
재계
아야
세계가
2사
불리한
아산
플러스
220
자체에
가축
금요일에
구제금융
##교는
##온의
데이비스
##업은
감정이
조국
예상하고
탐색
농산물
하나금융
클래스
문자메시
오디오
##비도
1981년
이코
결혼식
##났다는
마련됐다
##계층
냄새가
돌아다니
피해자를
포함하는
##찌감치
##자라고
냉각
갔다가
될지
송금
당대표
거리는
한결
##되지는
선택하는
김주
심심
최선의
##노의
지난해부터
남자를
다가오는
김장
양파
하나만
장난감
중시
편안한
240
박살
알기
7월부터
##대장
커뮤니케이션
두개
##셔도
원주민
한국사
심야
탄소
미래에셋
##시간은
상대방
유네스코
##르타
받았을
강세를
강수
캡처
원형
팔고
주도하는
전까지는
반정부
나가고
##약이
건데
남아프리카
난이도가
##동기
##VE
##지표
##pl
구조가
목소리로
밖의
정치적으로
최종적으로
여배우
자전거를
전지
거꾸로
##쳤습니다
##ide
후진
##ound
분에
##les
진지하게
##통의
금감원은
부검
않습니까
1억원
5만원
저소득층
경신
유저들이
인근에서
여자를
시작되었다
##생물
왔던
요리를
열을
##재료
정차
체납
##32
산출
##분들이
이용하면
문이
4인
변환
##캐슬
##이었다는
히틀
언급을
##청사에서
의미에서
천문학
사양
이완구
화제
간절
확인하기
넘쳐
분배
벗겨
##다나
영국이
교훈
나이로
기록은
외교적
힘들게
##당으로
식약
폭파
가족에게
주를
##설에
경우엔
##ost
금액은
강북
##검사를
속옷
##번이
동향
챌린
넘어섰다
wh
화력
##리칸
사회자
##8천
수준에서
##ign
경로
수요를
자궁
소나
##학규
낳은
하네요
한인
연말까지
4개의
테니
설치한
격투
그렇고
AM
파이널
방식에
##한다며
##우로
승점
벚꽃
일삼
추신
스타일을
광산
업그레이
병을
##줘서
##무늬
오키나와
주장하며
1970년대
##능력이
경제협력
처리하는
익스
감안할
시작하여
처리가
근본적으로
공존
메일
언급하지
자동차를
일종
꼼꼼히
나뉜
정신과
무릎을
##oon
동계올림픽
계약이
##ink
흘러나
회고
과거에는
야채
설치하고
구워
은행이
2단계
날아가
##구매
##작이
않겠느냐
##원자
수분
논평
제공합니다
피부를
Com
같다는
총수
무대에서
##총장
이것도
백두
시키는
케네
##기간에
대중의
헨리
##크에
있듯이
의도적으로
졸업하고
위원장을
SD
너머
목사
기저
DS
##IN
LG전자는
폭주
##람회
수치를
않으면서
엔진을
진출한
##론과
##염을
필라
서대문
가져온
모르겠지만
통합진보당
450
말했다고
구직
웨어
면이
여러모로
##롭지
곤충
2001
팬택
##걸이
밝히는
관광객이
다저
스튜어
판단해
##방위
하우
해석이
확산되고
트윈
케빈
느린
스트라이커
지역에서는
미주
초부터
해양수산
강철
유관
##던가
##백만
순이익
모습에
누리꾼
위임
성장할
지사
지원하기
실물
사망하고
쪽에서
##야만
부사장
자란
남편은
여자의
세수
규정이
연구진은
데서
인구의
TPP
예상치
it
##놓을
##old
가처분
숫자가
남미
##이기에
위해서다
행동은
한도
둘은
##ax
무죄를
18대
자정
##고에서
주의해야
명단에
교정
동일하게
죽기
##에른
보러
인출
극우
뮤직비디오
대법원은
사퇴를
어디까지나
학문
##갔습니다
현금을
작품으로
이곳을
영구적으로
성향의
현지에서
규정에
유병
조계
바그
##째를
줄어들고
전당대회
인격
모른다는
아내는
물량이
소식에
엄마는
성과가
##잡을
추세다
요코
##듭니다
##사고가
사무실에서
날에
금메달을
에코
마을의
챔피언스리그
공무원이
무자
뒤에도
다르지
거기다
##박을
##즈에
부모는
치아
##반은
포스
##마루
단계에
##내셔널
집합
##해달라고
##ame
입점
각국의
버섯
체력을
영주
백제
검토할
공급하는
든든
##났으며
경제는
kbs
존슨
장례식
프로그램의
시너
제한이
##기업이
되었을
없었기
유물
##걸로
급진
월간
줄고
하려면
개발이
##들에겐
경고를
##시안
핀란드
출력
해준
##시설이
사이를
낸다
성수
좋다는
##리는데
대동
미드필
판단이
하버드
중세
##ric
때문이라는
3명을
앉은
##셨으면
##급한
급감
미셸
웨딩
중증
실종자
일반인
장미
3명의
나타나지
없어요
적다
##손으로
시작하고
신청한
##디스플레이
무늬
소지가
##지출
돼지고
우체
흔한
수니
애리조
##있다는
##바퀴
여성과
시위가
시간도
단정
흥분
##메가
아르바이트
저희는
##리라는
직결
일본어
언론이
충실
보드
공소
오클
표출
방법이다
##티지
##과대학
가지게
테니스
반문
비교할
시도를
법학
사건에서
##갔고
##후의
갤럭시노트
점과
주에서
##상황을
범죄에
##ish
##aul
##orn
갤럭시S6
전환을
임종
판타지
VS
지형
리가
##하시고
1기
머릿
CS
##퍼드
조치는
아내를
표현이
맞물려
##테이션
마을에서
9회
이가
##개정
선정됐다
바이에른
꾸준한
비공식
밤새
혼인
##타점
호세
##째로
극대화
##억여
##나라의
상인
하라
##영상
##주의에
화재가
감행
갑옷
갤러리
하느냐
신청할
집값
##병원에서
학생을
##해지면서
##답을
캄보
바에
월스트리트저널
짐을
지진이
##초가
정권교
건물의
분야를
사무총장은
로스앤
롯데마트
외화
##업의
##감사
##업계의
주당
주춤
역사적인
올레
원주
이데
위기가
욕을
원리
##형태
제한을
발걸
아랫
50만
브라우
억압
매운
소방관
팀장은
보호하는
##함의
##공의
만하다
숨지고
##들끼리
요건
르노
기반의
사령관
이사장은
##까진
50년
대타
##시에는
칼리
##재해
##쓰는
억지로
책이
500만
리퍼
공개하지
6명
서기
차명
탄력
##들이는
전보다
한국에서는
구하는
벌금을
끄는
108
붙인
##있지
##있었다
대회에
하시는
##극장
조지아
##학급
톡톡
30만
고려한
우리나라가
달리고
투자하는
과학자들은
민영
총리를
요한
공청
메타
옆으로
##OD
##ersion
마냥
코카
불거진
마드리드
시세
STX
자산을
##가야
빠뜨
주택을
외의
잇달아
##하겠지만
모텔
##블리
동물을
안쪽
다음주
##강의
누릴
파주
##티가
##왔지만
8회
여가
##ID
부부의
바라보고
##TF
순간에
현수
회복을
##조와
엔화
바다를
7만
군주
사설
고성능
소주
연기가
실시할
삼성전자와
##효과가
##병과
B씨는
대화가
유선
적용한
직선
이진
파일럿
용의자
접목
높지
평가는
시민들은
것이지
##놓았다
카즈
사용되고
입문
##으로의
3월부터
달이
이현
요금제
반납
개관
카자
마련하고
네오
양적완화
브렉시트
하계
각기
조그
온실
##로써
제보
이슈가
하였고
##ere
SK텔레콤은
모조리
40년
4000
명단을
다뤄
서귀
사실과
##청원
시스템에
과열
중심이
##었으면
업무에
던졌다
175
가치는
헬기
2019
중남
쉬워
연구원
##ence
전문가들이
현상은
보여줬
유권자
교도소
##증후군
단독으로
대안을
촬영을
1세
인식하고
##림은
교사가
스탯
##킹을
유용한
어깨를
이유에
고혈압
한옥
##거리에서
##도우
전날보다
배우이다
##교류
판단한
나흘
부르며
##대기
오름
##레의
고기를
손학규
대를
부인이
##AA
계획입니다
##자에게는
호르몬
성명에서
##변경
##이용
지켜야
청취
##무장
목적은
좌석
미들
증인으로
##초에
적용된다
3세
모양을
환경부
누르면
판매량이
실력이
##본부장
홈페이지에서
##희가
##호텔에서
사무총장
우루
마련을
내어
처녀
최근까지
비영
나눌
##푸드
me
##설명
##야가
##arl
전원이
표본
출고
감염된
대사관
서울지방
실명
대사가
##방한
보너스
비해서
용어
하려는
성균
##카드는
프로그래
심리적
##지니
공항에서
##테이
행렬
##브는
##강화
삼성물산
전향
##키와
쌓인
수익성
아들은
인간은
##다시피
수월
공영
이득을
대신해
스턴
만이다
수익률
증상
시한
손님이
사료
예정이며
공세를
이종걸
1부
몸무
빌라
차가운
긴축
파이낸
관계자들이
##설계
오가는
남짓
재가
살리기
##row
개선에
개선이
신중한
업체에
##00만원을
감금
경향
진술했다
다이아몬드
마찬가지다
##퍼런스
약속한
##터널
이룰
유동성
커서
AK
공급이
유흥
맘에
값이
지적에
간판
소용
커피를
국토부는
USB
돌이
시작하면서
버프
벤츠
전화로
적절히
그곳에
몸의
관내
##받기
##1일
당했다고
강렬한
주인공은
노동조합
부족으로
일찌감치
추가되었다
조장
##버는
느껴지는
순차
금메달
토크
해준다
기술적
막혀
##are
숙련
권리가
연설에서
##족이
7회
전문의
진상규
##토와
##했음을
원자로
자원을
받으면서
과도하게
것이냐
입체
바다에
니코
편에
만나서
치료가
마을에
##yn
##amp
8개월
해피
리오
호평을
##하니까
내세운
뛰고
길어
##동계
온천
지난해에는
메달
##심리
협정
##ook
1973년
인도의
승차
정치자금
##시대의
수입을
성취
공유하는
충격적인
기능은
##중계
시기는
ECB
##희의
##캐피탈
솔루션
기아차
청사
복사
피자
16개
않더라도
변호인
입대
말했지만
군부
##전사
##네의
##측에
산은
20세기
접어들
##민주주의
ES
배트
##ull
본인도
보이기
이동하는
신세
지인
전대
알뜰폰
수입이
헝가리
진행해
##겁니다
그리하여
수상했다
리스
성장이
경악
국외
칼럼
##교섭
스타일의
느끼지
##und
##주군
조기에
장시간
절벽
##일간
수사관
대고
극단적인
설명이
명단
##추세
200만
부분이다
규제가
정치권의
패스트
주민의
국민의당은
##왕을
이란의
그늘
##2명
침수
싫어하는
반대하고
매트
시작될
테러를
LCD
시설이
차는
기밀
보너
우드
타락
설문조사
보잉
것이나
##성에서
리처드
스냅
재판에서
소통을
##코어
싸움이
##96
부엌
##더의
##온을
최고치를
악영향을
1박
따돌
KB국민
##했음에도
이어갈
##노가
##하겠
단속을
아래에서
##한지
교육의
총괄회
##적에
##마르
간호사
##사업자
종합적으로
간담회
경찰을
때를
부도
기간은
곳의
씨앗
텃밭
##당국
##치다
애틀
조직이
지워
돌아갔다
##지역을
녹아
##리기도
자료가
##3000
##됐는데
업계에서는
잃어
##대책을
흔적이
19세기
골자로
##범을
무책임
약혼
선동
직업을
해금
##인증
셀프
정하는
도덕적
정체를
우린
증대
대선을
반등
184
소개해
fl
거라는
제한하는
식당에서
##회사가
유보
강점
항복
##바르
인가
특수한
CG
선에서
편의를
##전도
결정된
열흘
상표
br
명확하게
하필
개신
다가가
대한민국을
주니어
감사원
하야
변수
우상
구성하는
회사채
아내의
크롬
못한다는
바라고
장소에
##러를
쓰인
증가로
기피
최재
간첩
웃고
거라
##날을
주위
원가
공수
##급이
방학
업계는
구속기소
모양이
시선
양대
역사에
의장이
찬반
##하느라
속한다
##au
##족을
장소로
대수
RO
담합
##나간
디즈니
인생의
##니즘
##구조를
감당
김준
반영된
덕분
시어
재료를
그런데도
망설
No
장면은
효율적으로
루트
인상이
않았는데
사랑에
포로
##그로
##드린다
출혈
중산층
격추
##과제
문제점
쉬는
인사는
중앙은행
지중
이노
용병
조치로
##음과
대통령도
위협에
##네는
소년은
준결승
##부도
나가야
만의
출동한
케냐
있겠다
한눈에
박찬
고민이
세기
애를
##후에
않았으나
일체
뉴저
농장
다채
여고
과제를
대기업의
##자면
128
서두
##거래소
개최된
주문을
소나무
잔류
생활에
카나
끊어
##소연
1∼
호위
##던지
##질로
실시한다
그룹이
##작의
평상
##마니아
최고위원회의에서
##소스
목에
논란은
##디자인
던지는
환불
질러
통과한
##사다
핵심은
모로
마른
용기
고심
구동
명명
입장은
극도로
시를
이해하기
##청소년
사정을
항구
못지않
어이
토로했다
농어촌
갖다
싣고
신랑
안에는
교육과
에르
at
루비
서귀포
##례로
도와주
##번을
총에
카드로
제도의
하겠습니다
##들처럼
한국형
실시하는
남아있다
리치
카테
레바논
##왔다고
아케
오오
##행사를
##왔는데
미혼
5명이
제자
##도도
##타나
##링은
106
주신
이래로
##ft
짧게
재검토
장의
##입을
공장에서
입술
달라질
화상
##전기
반발이
발매된
SKT
##림으로
선수이다
중소형
패턴을
선수권
##표준
여당의
삶이
오스트레일
문장
조상
##신문은
앞뒤
의심되는
황교안
목요일에
유격
맡았던
##래를
6억
새우
했더니
주제에
시크
종교적
현실에
배추
관심과
감옥에서
입어
박차를
아이언
신한은행
##피크
수납
때에도
노력하겠다
지수는
##에이
격렬한
들어왔다
현대자동차
절단
세븐
독립운동
신원
캐릭터로
거지
흑자
본회의에서
남서
##보육
이르러
개발하고
135
부가가
원시
장기적인
임산
##외과
실질적
부탁드립니다
##화탄
전쟁에서
호전
틀림
일이었다
포즈를
##하기위한
에드워드
##사고를
증세
시민이
사생활
개발해
사소한
따르
##위치
정치적인
수단을
산맥
##구간
사고는
##저축
##티의
영화에
con
##절로
리서치
무궁
빠지는
공개할
가문의
##업계는
##RI
다자
파이터
확보해
광대
15개
4월부터
수행할
챙기
갈색
##민과
FBI
정년
나무를
인증을
해주고
금지하는
모양으로
신탁
얇은
##복무
도피
촉촉
##집은
1단계
반가
##야는
##현장
찾아와
대목이다
첨가
##로봇
루머
##버릴
##내어
##투표를
돌며
##벌을
은행에
모르겠
전화가
특화
유죄를
발명
version
지도부는
우아
처해
1960년
프렌
천정배
세상에서
지정되었다
단통
스타디움
국가대표팀
MVP
##학대
##집단
정면으로
형태가
국책
쓰게
##지원을
햇볕
휴일
##종에
안된다고
힐링
시체를
법은
비대위
해결해야
##해하는
단계적으로
거나
해주세요
인류의
##화장
효과도
스타크래프트
캐리
사업으로
##수출
의무가
내려다
가격도
##거리며
지원금
윤상
비디오를
걸그룹
상당수가
유우
만들지
언제든지
끼워
서울로
지배구조
단점이
노하
한의
맡는
런던에서
앞을
파일을
그랑
넘어가는
해왔다
미터
##저런
퇴장
##사업의
너무나도
el
끝내고
1978년
재앙
기준금리를
소송에서
##움과
소유하고
효율적인
##벨트
감독과
분위기는
신고했다
바른정당
협업
##두면
LG유플러스
아니더라도
입장에선
##활동에
최씨는
가입한
하차
만들어졌다
폭탄을
들러
무차별
시간당
##보상
권역
영국에
그리스의
찍을
##명도
황우
차트
##바가
노력할
##시도
공매
##브랜드
소감을
##점유
수있게
경기침
KO
사제
싸이
건물에
물리적
회동을
멜로
법정에
지역과
시스템의
수류
정하고
핀테크
언급하며
예술의
나뉘어
미쓰
반기문
해에
차례에
경쟁력이
학생들
부회장이
##령의
강아지
합참
문자를
##배에
##먹은
##브가
##기준을
##마리를
##조약
알카
부진한
교사는
가세
##말고
양국은
전력이
태워
조사해
친구의
##속이
탑재한
##mer
분석하고
감사의
세르비아
볼륨
불안정
가족들은
##주주
깔끔하게
리모델링
아사히
작곡가
컨소시엄
새정치연합은
간사
성숙
급히
내며
어느새
연말정
보시
15분
노려
##광고
##오기
1972년
절실
가령
##VD
##px
##4000
한발
우대
엔터테인먼트
통신사
한수진
니가
산다
##시픽
##니에
전년보다
예산은
카트
리메이크
무분
##철은
낙동강
파우
##히게
해외로
로열
수위를
공정위
국장은
행동으로
un
김문
크리스탈
개개
##매김
##자연
방화
옮긴
NASA
보살
##공헌
배심원
##절이
인물을
파르
해온
##78
저자
삼성S
##인간
시각이
금전
##실점으로
2020년까지
남학생
시도한
미달
##기보다는
오하이
시리즈를
##경과
매사
탁월한
##해볼
잔디
저에게
지을
수석은
도발을
바뀌고
마음은
의사는
12년
시작하였다
일회
이뤄진다
##아와
점거
확고
부작용이
선체
##지급
##물가
구성원
자발적으로
##43
과정은
카타르
텔레비
데다가
영화에서
다투
자기의
##포드
순간을
보름
박진
개인적
그루
##죄로
원유철
없으나
현실적인
알리바
변경되었다
살피
하원의
일상생활
##타고
접촉을
페미니
1974년
묶여
시즌이
확대될
밀고
전념
의미는
부적절
홍대
##해야하는
##모습
근거를
연이어
운전자가
갔을
소닉
사례도
##화물
감성
걷고
체제로
일입니다
123
사원
ec
불에
##de
작아
친정
다니며
##범으로
가져옴
생명의
수준은
국민은행
시민사회
베타
항공사
##전망
오징
블라디미르
명목
수성
평가하는
슬픈
##ree
도착했다
운영체제
##도까지
영향력
##디스크
##ment
##복이
보궐선거
등록을
넥슨
방에서
##아래
성동
무라
가방을
판단할
건설을
괴롭힘
##평가를
아래의
카톡
가능하다고
도로에서
우려하고
사태로
##닝을
##런트
제공해
하와이
소재를
익숙한
심지어는
드럼
전달하는
농가
1975년
청주시
##직이
공관
##로선
스페이스
발발
왔다고
수평
1을
##감의
바로잡
이런저런
할머니는
신중하게
적용된
누락
보였고
생기면
영향은
##판과
패배를
사용될
업무보고
뛰었다
##히기
스쿨
이미지는
이익이
헤지
##기계
요구하며
한방
##rist
이광
떠올랐다
괜히
간이
경상북도
마루
##만원씩
##페이지
##억원에서
없어도
거슬러
##카쿠
지문
##임에
여럿
us
외환은행
노린
총무
##침해
일자리가
판매하고
브레이크
##신도시
금융감독원
조문
국내에서는
##서양
103
##감시
트럼프는
뉴욕의
밸런
가급적
정보기술
며느
에반
20개
작품에
강해
평소에
화면에
##자들도
채널을
남았다
박수를
비주류
##행동
서울을
영화이다
비어
여건
늑대
잔인한
해커
패치로
친이
자리매김
푸드
고액
없었다는
도입된
부족해
무게가
양은
거센
안타까운
두뇌
속이
##준은
의상
원자재
스페인의
공연이
한우
하나입니다
방법도
##길은
날카로운
손바닥
대두
##00년
닌텐
피력
호날
3주
깊게
세계대전
수용할
세련된
이륙
국정운영
동거
쿠르드
했었다
##하기까지
말리
생선
선장
이즈
##합니까
##되므로
센트
열매
홍성
민족의
자유무역협정
이재용
낳고
##보세요
보여주며
NPC
##제국
국군
이름과
##화되는
##아동
흐름이
댓글을
##사령부
노는
취지
침착
개정안이
##예정
긴밀한
개념이
할리우드
뷰티
세상의
국정조사
고르
낫다
시작하면
모양이다
음식점
징수
금액이
##파일
5위
제공하기
프로듀서
##도서관
영어로
캄보디아
국회의장
바닥을
3국
##int
하루를
데미지가
공격력이
##센터가
나루
언더
##금리가
##글을
##ork
모두의
피부가
좋았다
특히나
참석할
##스도
##4명
##곡이
문체
##na
영향력이
청와대에
져야
go
도시에
이케
사실도
파악됐다
다룰
연도
##탄의
##연도
머물러
주한미군
가능하도록
230
하니까
논평을
##했듯이
매직
귀엽
서정
테라
1950년
이스트
에티
확인을
전세가
ed
사나
이번주
면밀히
김영란
초반부터
양국이
낮추는
5G
##리스의
불균
##맨이
섬의
##위원장과
UA
거점
##비용을
##내용
송도
65세
한상
주민이
##광장
아이러
밑에서
성공할
컴퓨터를
엘리자베스
역량
사물인터넷
운영할
조종사
밀접한
##선택
공표
##버트
##itt
버릴
환급
증액
##웠고
경쟁에서
강사
##폴리오
확보했다
규칙을
##니당
##아무
효과로
부속
답이
삶은
인정할
조속한
기생
19세
거시
근로자의
머물고
사다
사이에서는
경제성
방송된
체결했다
CPU
마련해야
쓰러져
생기고
속해
책의
크리스마
되게
펼칠
특징은
등극
찍었다
프로필
흥미로운
지역별
선물로
지극
##상가
스트리트
##골이
##끈한
##날이
만인
바티
최전
검사가
투신
독자적인
##팩트
David
상황과
미드필더
부품을
도울
3G
김관
값을
내셔널
저기
##창이
##이후
놓았다
수장
##맛이
평화의
뜨거
##버거
대우조선해양
##조각
투구
보도자료를
아냐
성의
온라인으로
##보고서
5번
지각
만들어낸
##ai
담았다
저녁에
유학생
양당
##일본
비스
애리조나
##추가
방문했다
이벤트가
##두가
인내
그보다
##9천
하청
##소비자
외래
사르
##론으로
잔인
고객들이
4년간
절반을
검은색
조용한
##면과
기록하는
샤를
표현한
##2일
##관계에
콜로라도
청계
##하다면
김현정
극장판
적용하는
경상남도
설명할
출시를
허벅
유머
네트워크를
공유하고
##때마다
##클린
증오
##업소
현대상
색상
수동
학위를
바꿨다
화제를
##말라
##게이트
매장에서
서울역
이뤄져야
평을
##믹스
이치
한잔
십대
여부와
엄중
재원
갱신
속출
잭슨
연평도
리포트
##주시면
산소
9년
간담회에서
##피니
투자자들이
아마추어
휴양
까다로운
아저씨
대입
##인구
알려졌습니다
스리
##정비
신입생
입소
크리스토
제도적
과학적
설정이
##운의
합리적
보험사
진로
경희
그릴
낮고
생체
신고가
트위터를
올드
성균관
##밖에도
좌익
상고
은신
##검찰
##기부
본토
명칭을
##났던
주의가
1승
옮겼다
##보와
##과장은
매뉴얼
경과
유신
##브리지
##oto
다각
않으
##자이자
맺었다
잘하는
##카운
의견은
비영리
##93
갖지
##MS
데도
살았던
오이
은근히
##절차
파악할
제도는
문명
##이었
##주의가
땅볼
양심
시너지
만나세요
풀고
##프에
잃을
앤드류
틈을
##56
과태료
##달러에
판매량
9천
압도적으로
섹스
뛰어들
##개혁을
상승을
변해
깔끔한
##등급을
횡단
##맨의
중단하고
대리점
##올로
지켜보고
혐의도
외국인은
알고보니
쏠리고
배수
향했다
##하더니
꺾고
꽃이
왼손
##십니다
공론
묻혀
코스타
부장검사
사귀
양국의
##거래일
만남을
차관은
통합을
웃으며
결과다
국정감사
머물렀다
저질렀
터진
건수는
물고기
시흥
지름
##질은
잃게
뛰는
포함되지
##1명
퍼거
벌어질
믿어
번이나
##뿐이다
의회의
대의원
인원이
광범위
대응하는
직원들에게
고유의
##라미
##5일
성향이
##왔다는
##회사를
##정도로
유희
친구는
일각에선
##부부
방지하기
소셜네트워크
세미나
듣기
병원의
건물은
##업체들이
누나
분석됐다
##문화를
질병관리
결론이
##하늘
정책으로
걸린다
되니
확고한
시트
유한
##사업은
북구
##이나마
##롭다
1976년
8만
적법
취하는
초당
##부품
늘어난다
브뤼
우울증
해수욕
90년대
##본부장은
##현을
담임
##해수
여성가족
수단이
요격
기본으로
섰다
스미스
자연스러운
안전에
수출입
##집으로
재수
백지
##소재
스탠드에서도
가던
##녀가
##서리
계정을
다니고
파란색
##ther
눈빛
올라와
휴스턴
다루고
망원
##음의
##코를
잊혀
방과
사냥꾼
띄게
감동을
득점을
커녕
명예를
돼서
중년
자료사진
장점을
##line
지점에서
짐승
올라간
식품의
소속의
얼어붙
호랑이
디바
##저리
긴장을
##플랜
적발된
##플로
##전문가
하느
홍수
정우
단식
이동할
상황이었다
##질에
뉴욕에서
##ade
비비
저금리
##했거나
##고객
회의가
가지를
일대에서
##부진
##봤습니다
210
우리와
축산
##총회
더민
가문
등급을
사도
공간에
연루된
이관
피해자는
##42
이루어졌다
##너가
들어있는
연산
##층에서
장벽
4명의
전기를
17개
업체들은
국한
남편을
놀란
도우
순위를
없음을
##ram
판교
사천
소속사
먹었다
##rom
허용하는
아메리칸
하자는
기대감이
1만원
역사와
##퍼를
달성했다
##준이
마찰
밑으로
경력이
##브의
환수
##농업
배로
시킨
환율은
호의
액티브
단절
날로
예민
##저는
변수가
##여행을
소속으로
pl
필사
가리키는
김명
##중간
##00억
나가서
개성공
##촬영
##land
##련을
생각하며
이견이
##AS
연결되어
##발생
##웠습니다
표현의
형성된
##개편
속도는
천황
포획
##공무
차별화된
##결에
가정에서
의구
##포의
179
역할에
코레
##1000
Ph
다하겠다
받던
인신
했는지
판매한
먹어도
탱크
##종목
##득점
성북
피하고
트리플
불륜
##어가고
확보하기
커지는
##반대
도매
유모
놀라게
메르세
불신
키울
틀을
##장치를
하나에
대상에서
비관
기관에
일베
나타내고
특위
공정위는
역시나
##난이
송파구
사람이다
통화를
백화
졌다고
호환
##릴라
석사
나들이
계류
한전
도의
웨어러블
위배
우스
예보
col
울고
일방적인
코르
영상은
농축
양해
##보게
공급을
##벤션
Pl
피하는
##속도가
펜실
##쳤던
다녀온
야심
신속히
유진
배분
검사는
##시장과
알려지면서
게스트
언제까지
예술가
he
도전을
##위반
Sc
적잖
##돌고
운동이
동물의
##우에
검토를
게이지
돌리는
실시된
페어
경계를
##남부
일기
재학생
통틀
102
수락
이르렀
##삼성
녹취
물가상승
저택
##조달
이창
넘었다
방사선
분홍
송치
호응을
##드래
있는지를
생산을
엄마의
##대생
아찔
할까
##나가고
스트리밍
스콧
웃었다
초대형
경제부총리
##단위
용기를
탄도미사일
많았던
대비한
주유소
대답했다
욕설
러시아와
##기록을
두었다
달할
다중
인근의
##문화가
##지역으로
공격수
일컫
말만
단어가
##끼를
##근한
원내대표의
양천
##들한테
활발하게
즉위
1971년
두지
183
기적
속초
질문에는
##콘텐츠
He
종북
우리나라에서
sk
여성들은
##범은
##발사
선교
협약을
브랜
##유공
전투가
통하는
치러진
이코노미
발족
발견되지
해외에
정화
생각으로
##해달라
##하죠
기기를
남자와
전면에
놓치지
##법률
공용
##그는
##병원에
불분
##자키
##문서
내주
아들과
##7명
독일은
by
그랜
발생하면
그림이
공휴
뉴캐슬
시급한
선명
##경험
109
178
음식이
미쳤다
##화재
비용으로
7개월
##자격
거치
개발자
오카
당근
예언
##백이
김부
빼앗아
##리지만
상황입니다
현실이
집어넣
유재
형이
외식
이별
통신은
이메일을
선정해
지내고
연례
145
##소수
국가로
##yle
##혐의
최강의
이만
##절차를
##신청을
##72
경로를
정씨는
딱딱
철폐
수치는
GP
지친
범죄가
거제
못해서
사장의
정국
##오픈
오토바이
우정
윤석
##결은
불이익을
소득세
절반이
유니폼을
전략이
호흡을
재래
##연료
티베
유방암
##시내
남구
그리워
곤두
집주
공간으로
김윤
하라고
특허를
드랍
후의
연방준비
수제
환호
나뉜다
매몰
##대고
압력
교수와
군데
동요
머니
가량의
레몬
마이애
바디
##건설은
##척을
##다드
울릉
DC
##기업에
##own
마르크
##합이
##증가
지역주민
##갈이
포기하지
4분
투여
전투에
아기가
운동에
서명을
미미
##act
##터에서
학업
165
언제든
##MP
현황을
아이스크림
강의를
추기
##겨운
스즈
3선
경위
손목
##술한
누르고
막강한
남쪽으로
사회공헌
기꺼
##소송을
노력하는
메이크업
끈다
안될
권한이
배럴당
십자가
농식품
듭니다
##죄를
민정수석
알려주는
국민투표
##ake
제니
##화했다
##lex
내놓지
##마로
메시지가
저주
협력해
##선물
상대방의
부드럽게
##홀딩스
자녀의
늘어나면서
차질이
9월부터
뇌졸
##요원
##금에
좁아
진출에
1주
페루
##농협
루카
##공항을
패턴이
과거를
뒤덮
발이
매사추세
##저의
임의
차분
성우는
효능
떠오르는
냉장고
산불
직격
저출산
때문인
의혹과
군단
교육이
nh
##파리
##컴퍼
세력의
단체가
Wh
예정돼
6월에
보이면서
무리하게
왔지만
##위성
김창
아우디
이씨
신작
지체
단체의
http
슈퍼마켓
변화의
기대에
한반도의
섞여
가진다
경찰관이
포함된다
정황이
파이낸셜
##칙을
##천의
##반응
21세기
제목으로
##무니
서울은
신비
##고루
슬라이
이씨가
강세
국민건강
##건축
참여하지
가져야
구간을
루시
물질을
흔적
무너뜨
나오게
왔는데
배에
보이기도
흉기로
기재부
##노동조합
구속된
전라남도
##왕은
##루미늄
소말
오하이오
가나
##머리를
13개
달간
유류
과감한
에미
##orm
라이더
And
동창
##했으니
업로드
반발을
##할만한
도시는
파급
교육청
협력업체
보여주기
웃는
통증이
##OL
##기관을
인선
전해진다
블레이
행정안전
##연하게
원치
말했고
##행위에
비웃
양측은
CF
군에
찔러
필름
##방문
다듬
임대료
##학은
막장
사라지는
천주교
저와
집중할
기대했다
캠퍼
##쪽에서
확보하는
왕국
##ane
##곡동
거부하는
충돌이
혈압
전달한
인건비
제8
##시키면
인데
구슬
영수
##ru
정도만
의미합니다
증진
애틀랜
##피안타
##콘서
발자
힘들고
잔혹
코레일
선정한
사무실을
앞의
다시금
식탁
빚어
패시브
학교폭력
거래소
놓아
불사
##ald
거쳐야
##건전
정문
Mic
살리
가지가
감기
시점이
세계로
방송이
다친
유형의
공격할
7명
MOU
##201
재킷
국정원이
웬만한
결선
달콤한
##로에서
안개
주름
벗어날
맥도날
##지도록
##훈은
워크숍
세번째
대관
불가피한
##포는
플랫폼을
동경
##살인
세우는
OLED
경제활성화
취지의
##선수권
##하려던
설치를
2명의
급기
준우승
암시
트레이드
렌즈
대학은
사인
일본에서는
무력화
법과
설치하는
118
as
본회의를
##주의와
무겁
관건
스마트폰으로
교실
손수
일으키고
##수행
펼친
문서에
응답자의
대표에게
##성향
##결의
최연
손실이
보이는데
와일드
구조조정을
자격으로
노란색
##통신이
캐논
##숙이
기대감을
##역이다
크로아
한국노총
5차
고려하지
공이
아닙니까
표창
대결을
지휘관
현장의
표현하는
후인
##경원
번호를
염색
독립을
팬덤
라이온
않았다면
총장이
줄어들었다
3단계
DVD
설치되어
##자이다
열광
속여
포수
중요하게
##윤리
날인
모습과
기업으로
##식당
##단체의
대학이
예결
먹거리
도시가
한국경제
기꺼이
먹어야
##IB
환율이
바란
##택시
본다면
##pt
무기가
여우
대내
돌을
사고의
##제약
동조
##두리
역할은
고소득
관제
트라이
##처의
등에게
자연의
루마니아
먹는다
##취업
1977년
국가들이
소설가
##퍼는
마운드
비키
새누리당과
과제로
사기를
##만원에서
포상
Re
넘을
대변인이
##독을
요건을
설정을
자살을
농림축산
##품은
##군다나
입지를
급하게
십자
미시
생방송
여당은
한라
죄다
##68
현지시각
제시하고
직장을
회생
허나
##당국이
##센스
##orld
쓰러진
살면서
평가하고
선점
가결
초래할
원칙적으로
의정
##79
##yl
표명했다
Gr
##학이
휠체
무상급식
##너를
정치의
돌아서
눈앞에
##I는
나뭇
엉뚱한
쿠키
##장학
택시를
가르치는
넘는다
접한
##직으로
실감
여타
##국제공항
옮기는
##이어야
비과세
위와
점검하고
대남
같지
##사실을
다할
sv
아빠가
그거
3번째
세계경제
지적한
보냈습니다
어둠의
공허
##EN
펼쳐진다
고려해야
빨간색
분들도
주위를
##코와
히로시마
대인
궤도
##돌아
104
지침을
당뇨병
아무튼
겪을
오승
조화
##협약을
오른다
지도를
디렉
성장한
것이어서
넘나
조영
넘겼다
비롯된
시연
상황에서도
출발해
공직자
인천시
1000만
마법을
생각됩니다
질을
집중하고
본능
인체
생태계
퇴원
##질과
##ius
주석은
통째로
대표적으로
이건희
야권의
보훈
프란치
쪼개
본부장은
유난
위촉
놀고
원내대표와
최적의
구멍을
선보이는
좁혀
미국에서는
##철을
로스앤젤레스
ISA
책상
상임고
전경련
맞추고
언어를
뇌물을
##끄럽
과거사
제일모
##ime
역동
관계자가
군중
싸게
리조트
정세균
대도시
##히면
산업은행
실패로
##ational
##인가요
##회사인
##미사
페인트
마법사
벌써부터
음주운전
##대도
첨부
수석대표
대북제재
메릴
##종과
##TN
##치아
인위
신차
##란은
##귀를
IBM
##근이
하였으나
국가적
문제점이
언론을
이용자가
##쳤지만
피격
##훈이
역은
##창한
프랑크
##ank
##리언
##망의
하남
회견에서
신문에
향상을
급속히
성향을
위반한
등지에서
의사의
1969년
##치도
##드리는
한편으로는
전시회
눈치를
건축물
일정으로
업체를
이사는
일조
말입니다
##길로
애도
벽돌
외국계
이례적으로
예년
인상적인
어필
##스타일
기울이고
학사
##애틀
연고
임시국
진동
지역사회
155
업체인
이긴
##국수
##지부
스토리를
들어가지
Ad
전달할
동국
캡틴
년까지
##주의자
박영선
외부에
드립니다
이용하고
산을
일의
급성
기준은
임직
행복을
cnn의
한가운데
연계해
태양의
리우
엘리엇
눈물이
아이에게
의심을
투자한
끝나지
아인
없이도
그친
슬라
##군데
##미술관
개발된
##음식
한겨
##군에서
더빙
플루
더군다나
바꿔야
외야
모른다고
열풍
##령으로
축구를
소설을
게이머
민심을
##더라면
1968년
후보에게
재외
판결에
거취
무르
정당이
숨지게
버린다
마실
잃지
넓혀
##아닌
스커
##회원
신체적
지켜봐야
관념
싸워
밝혀지지
조항을
스킬이
주민들에게
UE
##eth
##부양
발표가
부위
마쓰
멈추지
방콕
멘토
부결
##극을
멀어
수니파
##인지를
##께서는
오해를
정황을
노동시장
랭크
질주
##단다
##네트
섬에
없애고
##스와의
나오자
재능을
구명
##000억원으로
##르르
연립
##i의
순조
마포구
원장이
우려하는
##장일
##경우
여론의
WW
##나지
살아야
현대차는
살아남은
사진으로
성관계를
유언
사례로
제라
확대에
##기한
소개하는
사적
버려진
##크라
언급이
앞으로의
##여객
무서워
잔해
속을
##냈고
않던
점검을
편안하게
역사는
골고루
무너진
열차가
맹세
시체
단골
##방식을
##할인
계획하고
이루어지고
불태
도청
태스크
재판이
몰두
등록된
위상을
장이
##oul
받아들이고
격차를
왔고
움직이지
하신
6조
##부상
프랑스는
##슬링
신한금융
측과
한국전쟁
무작정
오타
행진을
부평
담당하고
감탄
##오일
알루미늄
3의
EP
드루
반값
벗고
##류와
개봉한
조원
샀다
제갈
진지한
얘기도
무너져
개소
티켓을
##인원
표했다
물량을
##갑을
드라
책임은
조치에
극적인
콘크리트
##겼고
리차
살포
##주시고
번갈
것에서
의자
몰린
홈쇼핑
##ble
##프스
연구결과
하도급
단장
포기한
3호
먹이를
대명
##차단
주며
워커
시집
과거와
세미
블로그에
남경
다다
선택이
반입
있으니까
##새가
터라
역학
종식
폐업
학력
투자에
명칭은
삼겹
슬롯
##아들
핵실험을
이용객
평균자책점
판결했다
##형사
##전형
핸드폰
##보장이
상품이
타깃
##환의
##피의
특징이
놀러
##전까지
##크셔
##외의
손상을
카디
파인
##무지
통증을
물은
##접촉
##erg
필라델
이야기도
사라진다
몸으로
##가면
무능
양측의
데이터베이스
올라왔다
불법으로
##래의
분주
누구보다
##버스를
장담
건전한
얼굴로
프란치스코
##3명
제시하는
##매수
우버
거부한
브로커
##니지
했다가
모자라
났을
##직에서
공단
1963년
##할까
주교
##홈쇼핑
없었을
스타벅
300만
##제일
사태의
존스
없으므로
추상
14개
우선적으로
내에서도
명인
경남도
대표적이다
치료에
컬렉션
세션
80년대
이세돌
몰입
국방장관
능력과
규정한
삼는
##있으며
투명한
전도
##해튼
여겨진다
동정
목표가
불허
취하지
##음료
##수용
##폴리
1948년
그러면서도
포트폴리오
Ex
볼수
특성이
동호
사람들에
토론회
마트
밀가루
미래가
사야
기온은
스터
헌재
보금
부족하다
부산시
영원한
여행객
읽기
유가증권
의식이
구멍이
쌓은
더운
영업정지
연중
그리는
패러다
##하기만
##공으로
업무상
운명을
요청하는
비행기가
불려
다케
사회적으로
##만큼이나
출연했다
##나물
2번째
보이게
##출판
##라디오
학생과
안전성
중소기업의
연결해
사라질
착수했다
나토
시애틀
브랜드의
점유율을
악명
비판도
##생태
자신만의
카드는
상황으로
40분
이철
요청할
##가격은
##참한
높인
중단을
##59
년부터
##질적인
1965년
DLC
막말
발견되었다
비전을
일본으로
내년에는
김원
호평
##걸음
변화와
조화를
선생님이
올리브
대다수의
정부조직
바쁘
얻었습니다
##림에
뿐이었다
접근을
BB
낭만
8월에
와이파이
섞인
콘솔
예쁘게
원활한
4가지
2심
사회는
제거하는
구제역
받도록
문화체육관광부
남북정상회담
##시험을
##연금을
##지수가
##했더니
##바를
##에게만
전례
원료
낮았다
국제통화
문제라고
마련하는
여건이
가계대출
인간과
매사추세츠
돌려보
폭행을
서울대학교
돌아다
##장에는
위원은
피지
##기간은
앤디
안토니
목이
##로마
가끔씩
슬프
##pe
걸어서
거둬
##거지
국토교통부
주역
만주
개발하는
교보
영어를
한성
결정적
공격의
기술에
어버
조정을
힙합
##으시
70년
각광
캐시
절대적으로
##혔습니다
검토해
##편은
지시한
순방
신격
가정을
숨은
서비스의
도마
편한
충당
##판에서는
10월에
바다로
##하루
남게
1960년대
감히
몸은
양상을
지구를
독창
비주얼
현대의
사망했다고
대응하기
##란한
북한인권
미처
보였지만
자리잡고
교토
청렴
현안에
##oe
모자를
시장과
갇힌
꿈꾸는
풍경을
통증
불쌍
방송은
걸리지
여성들의
발표하는
공세
모두발
은평
삼촌
##보이는
유기농
모노
병에
공무원의
내로
##기관과
예전에는
##심사를
오토바
옳은
인수합
대세
할머니가
조심스럽게
나나
몹시
방사성
##브리핑
비단
설치할
연습을
당선된
무기고
정윤
되길
해저
8명
대가를
##슬라
##첨단
여론조사에서
최저임
위치가
다문화
##먼은
구성돼
분명하다
##모니
응모
https
##하고는
당기순
예매
상태의
스피커
메트로
나왔던
평이
대응에
부작용을
오산
살게
##바나
경쟁에
##청년
간사인
작사
##하였지만
##사원
아이와
금융시장
맨해튼
반지
복지부
함으로써
##타리
마련에
4월에
107
노조가
아쉬움을
외로
##스텔
##보라
##덩이
대회의
평년
떠오른
애들
놀랐
느려
##레이트
##발전소
자처
낙태
점수가
##자이
위해서라도
퀄컴
신청했다
동지
딸기
다우
운영한다
음력
계열의
모으는
111
동아
##어린이
팀장
116
작업은
주인공의
고안
장치가
취급을
되었다는
장애가
남아공
짜증
들어가기
물질이
##하려다
확산을
개표
##촉진
증가에
충주
판문점
거액의
구성이
있기도
걷기
진흥
터트
비방
의회가
면모를
정형
서포터
어둡
##북부
##느냐는
활주로
이해하는
추진한다
##너의
동남아시아
##르와
세워진
올랐고
수법으로
합창
이해하지
대림
흡입
황폐
공언
##대리
##책은
오스트레일리아
선의
한국으로
스마트폰에
박준
얼룩
##큰술
월평균
진한
159
떠넘
##내서
##범의
나오기도
애로
하룻
OP
도시락
차례의
전역에서
토리
눈높
연안
인성
##단체가
시사했다
다진
습관
건넨
##직은
제프
기록에
##제에서
터무니
성격의
어지간
키운
면적
그치지
시장점유
UHD
플레이어는
##파인
##군에게
외교부는
en
교수를
##선한
3월에
트럼프가
회담에서
추억을
보험료를
##기게
##케미
탄탄한
남극
달러가
설사
##리히
##거리고
두번
공간에서
신학
##공사의
젊은이들이
수반
##신에
하락세를
와중
##미네
기간제
자외선
##WC
PK
##수아
##층으로
임금피크
##대회에
지위
시청률
##씨도
기자는
국정원의
삼성그룹
보였습니다
시내버스
데스크
정체가
살펴보고
김유
소비에
능력에
변하지
##신도
아들인
##리스가
하였습니다
##적입니다
##일지
사랑과
맞추는
관철
증강
대표도
후반기
부정부
##턴은
##ana
NS
한국시리즈
스윙
##항이
10월부터
##정원
수컷
##센터의
부여하는
이뤘다
UAE
정당의
몸무게
금융회사
지녔
la
손자
가열
##가지를
##거리에
압둘
##사이즈
##세기에
##든다
밖에도
고아
CES
선택의
아즈
##AP
고가의
기업가
여긴
아파트에
##전지
전문가는
##상태에
싶어하는
750
삶과
##읍니다
지내는
##화도
마블
##지점
##구멍
레시피
고용노동부
차지한다
Le
사가
차남
개최한
탓이다
고객은
확정했다
황우여
강을
포스트시즌
##사업이
내놓는
논쟁을
카니
레인저
신공항
Te
이룬다
오만
교전
국방위원회
일들이
경선을
체계적인
어린이들이
객실
##사우
토너먼
그칠
출신이
산재
경제적으로
유저가
소유자
아시아나항공
높아지는
체결한
이정현
##맥을
마누
비평가
나왔는데
##무는
9월에
구한
정의화
항공모
##게이션
##작용
플래시
헤비
편이라
가능합니다
##했기에
불완
퇴진
##변에
ABC
태우고
누구를
색이
대응이
대답을
규모다
성명서에서
우라늄
##사로서
어플
마리가
언론들은
##sc
바짝
주제를
##을까
부모와
옵티
영업이익은
##등으로
과실
더는
바늘
포탑
역임했다
이씨의
암컷
##eng
취미
익산
마오
바뀌어
##착륙
특급
##작품
1962년
만회
찾아서
두어
요미
브뤼셀
유난히
배경이
움직임에
그만두
팬들
죽지
가깝게
##구도
개최했다
군대가
##업체를
손톱
오디션
했어
국토해양
김두
매립
##방지법
국공
자리는
찾아가는
들어가고
강화에
구간이
지팡
호화
위력을
단계를
펼치는
없거나
##관리에
굴러
광양
이어지면서
MD
디저
##분투
##able
전략공천
스카우
소비가
쪽을
##시요
싶어요
성장에
의미의
##집의
##cho
초반에는
승객이
종업원
정도면
##ron
##2의
##하였던
코스트
민자
아머
전통적으로
##축구연맹
6명이
항목을
강화하기
지폐
##녀의
##학교를
등기
대체할
소진
행사에는
물의
심의를
참가하는
관장
집무
외부의
이사를
자를
심플
##정책에
광장에서
중에도
##회의는
비서실장
갑질
문단
##분쟁
##58
국유
##시키려는
성능은
능가
121
고려하고
##파티
로이
##여개
번개
가능하지만
효율이
불확실성이
5000만원
우리금융
언급된
아파트에서
총체
드래프트
도와주는
북쪽으로
재즈
##척이
국제공항
서비스로
사옥
치우
가입을
##애를
나타내
관리하고
사치
비난하는
과징금
커맨
중앙선
아끼지
이자를
숫자를
1점
3자
플래그
##rid
것들
빌리
##쿠르
국도
##41
트랜스
10배
증시가
소비자에게
무언가
말라는
분수
1위로
조사했다
난방
내에서는
외교관
막걸
정체성을
7억
태도가
레이싱
쓸데
노선이
애매한
센터에서
어째서
##타에
자구
과장은
위기의
의무화
교향
아줌
것만으로도
사실로
복수의
##었기에
가솔
비밀을
합산
기호
민속
##달이
분은
승계
마츠
진행을
파티를
##티모
보았을
1라운드
행복하게
2개를
##겠지요
지어진
최태
##ical
보였던
그것의
AD
점진
총력을
조사하는
캠퍼스
시작했다고
대화의
##그릇
이야기하는
모션
Go
어머
##질서
이전부터
포함하고
사랑이
오늘날의
약정
사진에
멤버들이
12월에
신경쓰
공평
수익이
상반기에
군용
논의하고
##었어
알고리즘
요르단
나오며
변한
최상위
거치지
사장을
역사교과서
인물은
##메뉴
언론사
기자의
행사할
퍼스트
공학
법으로
포천
##하네요
기병
인상에
올라간다
그룹을
구도
돌아간
##딩을
마음껏
앨범을
미라
##하에서
실시해
조형
막지
격퇴
##제조
##쿠니
거래량은
##정권
우루과
##차고
죄책
기초연금
##창출
말해서
간장
##로이드
전하는
##예를
여야의
당권
##것이다
어선
WHO
외국어
##피싱
중국산
외상
마당에
##벌레
폐지를
지적하고
기득권
스톰
없었으며
##골프
종류가
일축했다
DB
상처가
1급
부문의
순회
탄약
도입해
올해로
참석하는
##융합
기록할
생활이
fc
##렸으나
소녀의
불어넣
##통신에
거론되고
출시했다
중요하지만
##곡으로
##시키면서
급증했다
모나
시에는
커져
레버
##진단
시장에서는
3위를
##당한다
해석을
비아
##올라
교회의
귀중한
되기를
트라우
##OM
신촌
##57
##추적
태백
지대
##슨과
머리카락
소년이
딸과
천문
방으로
##장으로서
살인사건
혼란이
주총
외교안보
##ames
정계
클러
끓여
국제사회
맡을
##패가
관영
발견되었습니다
호랑
##민들이
SF
건넸
##an은
구매한
엔씨
감독으로
안정된
아픔을
이후부터
희망하는
##에스
##동력
고민하고
크레이
수뇌
없는지
걱정을
짧아
구조적
뛰어넘는
##ma
닦아
변경을
이슬람국가
원룸
방산
##시스트
임기를
개신교
알렉스
서울시의
##여명
182
떨어지면
추대
임기가
탐구
시간대
윤성
15만
EBS
줄인
심사위원
##이트는
활짝
##홍보
싶으면
멍청
스테이크
유니버
체제가
##화나
창문을
확보에
##생으로
중남미
##uck
마도
크기는
등장해
편견
생각된다
저그
활동은
놓는
의도를
##마리가
있을까요
##니아의
##치료를
롯데는
신도시
이런일이
인연을
권익
지켰다
##마스터
중앙선거
트래픽
검열
난사
장외
키즈
##진출
물품을
아모
무시할
##스토리
앤더
기억에
##제도가
선발로
기장
운영되고
지극히
못지
팀원
새벽에
배고
실사
반대를
주장하면서
1000만원
방지를
사안에
탈취
##텍스
감사합니다
미수
오디
##류로
공개됐다
무시하는
정의를
흔적을
부산에서
##포스트
제지
##관절
##것입니다
대담
해상에서
1조원
##노를
질서
신생아
손잡고
##않고
교육과정
쏘는
##테니
돌리고
용도
##지정
협의해
편향
##열차
소련의
파문
Rob
레벨이
반발했다
시점을
악수
세대의
휴대전화를
안락
커지면서
징역형을
순차적으로
##독립
2라운드
교복
넣어서
삼았다
사이에는
치면
목동
선언을
온도가
##때도
그들과
운전을
##IM
밀착
걱정하는
정선
114
본사를
넓게
캐머
학계
스톡
탈환
국정감사에서
대출이
국가정보원
관심은
분야는
뒤따
미카
유럽과
현재로서는
기록했고
차지할
처벌이
선고를
##iam
서강
대통령님
6월부터
기숙사
1990
소녀가
길이가
반죽
출시할
스탈
맡기
즈음
##철의
활발히
경기장에서
개혁의
동력
안습
##준의
181
스마트폰의
##신한
##다오
싸움에서
GT
땅콩
발표에
인터페이스
바뀐다
해발
돌렸다
##렸다가
##이라고도
세금이
갖췄다
좋아한다
노력에
됐던
우려된다
내려진
주소를
##적이지만
수사의
진흙
행위로
출마한
존엄
선수들
추정하고
5월부터
##원자력
구조로
할부
전장
팔려
아파트는
나왔을
##결혼
지역경제
##문제가
현실화
유대인
강화된
사망했습니다
선거는
운명
주일
with
##64
국회의원이
##oth
출범한
환산
부모를
왼쪽부터
##안군
##살의
국무장관
##인이라는
심혈
##돌았다
인치
주목받고
1967년
도래
6000
조금은
베네수엘라
준비에
이야기하고
그제
지디
##면세점
너의
##터스
수익률을
##개념
논쟁이
저렴하게
웨일즈
소말리아
##행복
묻어
정부서울
나왔고
대정부
알몸
우월
간접적으로
##ction
##드래곤
면담을
의식한
불빛
남산
위태
##레스테
인권을
뿌리를
##메르
지적한다
Be
브룩
우측
##식에는
##매치
모하
이쁜
##쿠스
##탱크
정동영
물건이
모양새다
##워즈
##슨을
탈세
판정이
자라는
기대하는
노래가
안된다는
대회는
북한에서
캐릭터는
크기를
인수한
##야를
서남
증가해
5월에
주민들을
문턱
보낸다
만난다
이렇듯
깨끗하게
##게이
밝혔지만
사업장
높기
나열
있었어요
논문을
##오자
맡는다
사토
##예금
나서지
것의
빼면
생각이다
보좌관
시작합니다
바비
##통과
양질의
전병
##tern
##석유
납입
여덟
무시한
##6명
지중해
122
장애를
코디
이스라엘의
온통
##추를
##희정
고군
무색
강하고
총학생
구간은
다채로운
해치
금지하고
##상태가
상사
1999
깨어
이색
마린
##ii
정권에
bluepic
쇠고기
redpic
둘의
조차
찬양
##내를
은행은
이틀간
##ome
내비쳤다
추진을
디자인은
##eter
검찰과
어뢰
결산
##모드
##있지만
##봐요
카자흐
카메라에
반복적으로
##ance
행정자치
환자에게
오른손
##시켜서
사항이
##FM
이산화탄
급기야
하프
##통계
보람
되므로
절충
1년이
경선에서
아비
##co
##느냐에
카메론
##는지도
##맞은
디버
스완
예뻐
한가지
공개되었다
집의
전이
카드사
옥수수
##네마
하는가
연사
전멸
##협회가
투자해
매춘
설명했습니다
그려진
인접한
버리
수순
재연
손잡
운운
##업종
잠이
다큐멘터리
법안에
승소
인재를
너도
가면라이더
앱스토
병이
전문가가
진료를
##GA
강호
번식
##이팅
##EX
휴전
알아보
##초의
블랙홀
퍼즐
FO
##명령을
바람직하지
투자할
이름도
하루가
논의하는
다짐했다
##침에
##en은
버전을
SNS를
국제적인
대역
잠복
##엑스
맞추기
교육에
용산구
버거
친구들
대한민국은
##들지
su
인삼
##티노
숙소
자사의
의도로
지원과
조희
뜬금
버스가
##라고도
불고
전단
##제이
움직이고
월드컵에서
pr
자수
밸런스
요구한다
편을
띈다
MM
개최를
리틀
법규
단연
이빨
기름을
##공사를
타격이
특화된
##표는
인터넷에서
현존
바꾸어
항암
##ous
중국으로
초청해
칼라
제공했다
기능도
나중에는
방문할
언론인
즉각적인
지금처럼
손질
신영
요렇게
전전
접수된
##있어요
인수를
무적
프리미어리그
못했을
13년
접근할
VIP
##기능을
억류
사고에
자체도
담을
설령
다국적
이도
##P는
개원
이기고
분쟁이
능동
##환경을
각별한
##짐에
사안이
##쳤을
##파워
편리한
임박
##진다면
핵심인
아세안
글자
정도이다
혁신적인
곡은
취임한
번거
지점에
겨냥해
전교조
캐머런
나타났다고
##인으로서
시달리고
기후변화
##호흡기
##아무개
##300
소유한
퍼부
표현할
지역인
제한된
시절에는
때리고
이상하게
성남시
상품의
동점
이장
6차
수있을
리본
링컨
창고
주면서
##기온은
##녀를
설명한다
창문
지식경제
면도
발표하면서
자신에
투자자들의
사탕
공개하고
다이빙
클럽의
출전해
정했다
클라우
박태
요괴
마우
##느니
반포
덮어
홍익
도착해
간과
보태
280
브렌
수퍼
KE
가요
올리며
당헌
못하다
장면에서
필연
제출할
고졸
##원으로부터
경질
형상
공직선거법
허리케
mbc
선거법
자산운용
가출
이어가
아토
발매되었다
한진해운
뻔한
준다는
처리에
아이러니
뽑은
##hael
기쁨을
경보
문헌
페르난
연말정산
우려해
##사이드
나비
정상에
관광객들이
ID
얼른
SL
스모
##소유
##그레
##구장
##브레
지금부터
감추지
알제
였고
크라운
스릴
일행이
5m
넘기는
키를
##거렸다
시원하게
##루살
특조
2차례
제거하고
배경에
돌보는
개발과
교차로
농도가
거미
불복
신뢰할
가이드라인
쓰던
대니
데에는
먼지
주기로
270
성장세를
내리지
##노인
공화당의
가족들과
페르시아
권영
없어진
죽게
총회
##어스
사무실에
##유기
##광장에서
더한
##전인
##실적
홍문
국제통화기금
제기하고
##장으로부터
변호사를
주목하고
오류가
특성화
부분적으로
사용하며
500만원
씨에
제9
사망자가
누구에게
여성에게
센트럴
##모바일
##상태를
##자산운용
소관
탐방
동작을
##신탁
어버이
##모와
희망이
세가
제네바
농림축산식품
레스터
따라서는
넘어갈
견뎌
##백의
시선이
따지면
1심에서
마운
카리스
##해야할
경험과
##행위가
반쯤
살았다
##묘하게
##ins
억울한
쓰나
명백히
##보면서
분쟁을
조경
개인정보를
##란트
삼성서울
나눴다
##민주당
승려
##루살렘
##AN
미군의
7대
나왔지만
플레이어의
왔다는
질투
제공되는
있는데도
구자
센서
보도한
##라니
먹여
##농구
끝을
떡밥
##양과
경남기업
입힌
이야기다
##팀과
##erv
##회사에
거느
##정하게
##ero
헬멧
헌법에
일렉
제왕
맞출
신진
의무적으로
De
##닐라
만장일
충실히
현안을
##카드로
보장하는
토종
##문제에
##초로
##하였다고
조건에
만나기
극단주의
파격적인
지방에
통보를
##레옹
##배치
전한
##표로
쉬고
여러분의
트레일러
##조사가
놀이터
UEFA
##새를
민주주의를
117
시작을
##실업
있었다면
지나는
##경찰서에
좋아하고
와의
##위생
일원으로
진정으로
고난
불리며
제안에
다르지만
머레이
축복
시행하고
넥서스
호주의
천사
##오게
##회의가
사태는
견딜
중요합니다
거둘
수질
최고급
크기로
시리즈는
##ivers
지난번
돈의
바나나
상품은
은행들이
이전까지
헌법재판소
간식
매듭
##대로라면
대상이다
가지로
31일까지
주재로
건보
딸은
60세
레지
방향에
5시간
출석해
되었지만
되돌려
##사정
재보선
싶었던
에이전
기다려야
##한번
기여한
난입
법적인
뜨는
미러
부응
치과
##라이브
못하면서
개연
섹시
찍힌
##지역은
운동의
##공은
에서도
달라진다
떠난다
지난해에
강성
가뜩
특사
해달라고
김정은이
색을
##영과
##ene
드러난다
현실은
직후인
##진행
곁에
단계로
청량
공무원은
지디넷
실패를
순위가
클럽에서
받아들이는
활동한
안착
1964년
##대금
중시하는
문서는
##들이나
점으로
##속성
시작했으며
##테리아
출루
뉴스에
동포
##수인
비롯하여
##병원은
하러
벤처기업
신은
지나고
소속된
변하는
##트륨
미묘한
흥미를
1998
수행하고
이들도
주도로
케어
##망은
국악
깔아
투쟁을
모던
동안에
다니면서
방울
회의는
##상품을
##매출
아님
게임으로
양측이
않는데
훈련에
##수수료
하반기에
이뤄져
증거로
NHK
##스탠
##봤는데
##내면
프로그램으로
##백화
않아요
본연의
##경제를
대미지를
가리킨다
내몰
##후가
파업을
필요도
보이스피싱
근원
공성
소개하고
장착한
부어
안전보장이
이튿
발휘할
##퍼가
샐러드
필라델피아
##돈이
아홉
경기의
가뜩이나
트럼프의
발언으로
부탁을
bbc
김도
몇년
그쳐
신약
##개는
##중은
늦어
정립
##하기보다는
기사는
정조
색다른
##we
강좌
##가도
약점을
통지
액체
버프를
대한민국에서
줄어든다
답한
백업
LPG
##중에서
알렉산더
##베르크
맞으면
박경
성장하는
제작에
수출을
예방을
##ave
##조절
결정했다고
식구
##나기
일간지
10조
될까
솟아
나폴레옹
##공간을
지난해까지
구축을
선보이고
조별리그
무거
등장하고
유도하는
의회는
결정될
근무를
유지하면서
2009년부터
차에서
호박
우리나라에
##국어
밝혔다고
것이므로
호소하는
지날
초점이
오스만
##로미터
모델의
참가했다
차질
##진흥원
카에다
부분의
내전
멈추고
##물인
##나갔다
유발하는
수료
휘둘
궁극적으로
##주얼
미쳐
원금
100m
왕립
힘의
지질
전문적인
양평
수출은
공무원들이
18세
항만
등장할
학년
##민들의
오게
헬스
소방당국은
표정이
결집
##시킨다는
##발에
럭셔
놀랍게도
발전소
별명을
아파트가
찾는다
##베스트
요청이
##만원대
##igh
묵묵
##하든
##주면서
상응
운행을
이쁘
두바이
##클로
##마드
내연
##되어있다
##증권은
장소가
##케이스
##응답
##8명
전화번호
유지를
패트릭
260
보리
살아온
버는
이들에
##웠지만
두꺼운
##사업으로
어렵지만
177
사람이라면
남성과
시즈
##범위
때면
양재
대한민국이
메르세데스
꾸미
어젯
차등
부동
중력
##89
노하우를
포용
무모
소리로
것일까
자폭
##곡의
증거는
두들
삼척
시각도
##기름
필요하지
재미있게
전통을
GPS
안은
크라이
특집
아니야
있으면서
뜨고
담겼다
물리학
디트로
홈플러스
5세
던지고
중으로
독일에서
경험한
육아휴
알면서도
##재난
트롤
##oug
##aj
폭발적인
결정했습니다
외부에서
평소보다
모방
##셨습니다
샌더스
전망입니다
화면이
자치구
판매량은
바와
시민들에게
##방송을
많게는
참여한다
##였어요
##왔을
1961년
아라비아
##거가
고령화
사학
달의
맥스
이것저
니시
##래스카
있더라도
파트너십
겸손
의사소
##물질이
안젤
##해수욕
이튿날
문구가
소품
아나운서
피츠
미지수다
후폭
여기고
쌍용차
계속된
팀에서
중화인민
거리로
redban
##교부
결혼식을
카다
르네
식이다
blueban
됐지만
전하고
명도
par
슬퍼
곡이
세울
원내대표를
하면서도
시청자
127
금수
공연은
미분양
밟고
여태
현대건설
돌고래
됐을
영국을
책임지는
NG
##위원이
안드레
##질러
##이지요
드러나는
치를
출발한
SNS에
거품
형식의
영등포구
tr
참가자
긴장이
정규리그
씻어
##사상
상설
인과
도로가
##인이다
조업
##작인
눈과
주중
도미
추정했다
인력이
우즈베
##등은
##랑드
##송이
결단을
##골로
광주시
##마케팅
김제
지지율은
대검찰
##었더니
##나타
박기
스스로의
타인의
바다의
산사태
원피스
얻는다
하이라
##곡은
힐러
##ole
민원을
##하겠다며
이기는
점쳐
126
술집
의회에
산업을
인피니
생각했던
기념해
되었던
타겟
선조
지우
파면
##행성
방위사업
셔틀
제10
말투
건강하게
느낌의
눈부
달해
##ans
##티에
Con
면치
원합니다
##에미
보정
송환
이쪽은
이면
이룩
1980
##렸기
하룻밤
엿볼
##말에
얼굴은
자유의
##증명
##랭크
미츠
당혹
빠지지
공문을
복권
줄은
##순이
날리는
분량의
세액
인해서
##리온
당에
##거래를
후보자에
장중
경찰에게
충분하지
마케팅을
안하고
##린다고
직원들을
이승만
소독
빚고
##맛을
5명의
##상으로는
안도
선택했다
##tv
통틀어
높습니다
앞당겨
30일까지
의견에
충격이
길러
CIA
모아서
##퍼런
RPG
저자는
측면을
여지
이루어지는
보여주지
새삼
만들면
그러고
고향인
말이야
##치인
전화통
번째는
2011년부터
모르겠습니다
사용해야
휴대용
브라질의
오마
프레이
영장을
챙기는
무기는
##촬영을
##채로
바람직한
유출된
##공약
섬을
장소는
현금으로
일행은
원내대변인은
##과장
사무처
지장이
##te
국립공원
바람직하다
유무
##십시요
허무
##연장
##ower
100명
토요
적극적
통일을
공원에서
신나게
출판사
고양시
급한
모친
보호하고
연결되는
네티즌들은
모기
##내면서
FT
노리
##로이
11년
방영된
반영하는
있기는
합친
취업을
말하기
최고위
##오버
좋겠
##연봉
2010년부터
부디
##고시
왕국의
저서
Se
7월에
일당
콜린
##문이다
2명은
부족하다는
전자상
크리티
우주의
듣게
수익률이
하단
모닝
음악이
이루어지지
감당할
##me
글에서
레일
##경으로
##격은
여고생
라이선
해밀
털어놨다
##혀서
발생했습니다
터뜨렸다
카터
과자
##삼아
독일과
시위에
전략이다
설치돼
##편집
제도다
미디
특징으로
손가락을
이호
폭을
늦춰
##코프
로얄
활용하고
명분
자작
못한다고
공기를
일대에
##처로
##구장에서
##3일
권력의
급변
질타
관계의
뜨겁
위상
황태
소셜네트워크서비스
측에서는
100년
연행
타기
입성
카탈
프랑스에서
##신고를
보험금을
이리저리
소홀히
이희
취지를
자본시장
만나면
##되더라도
프로그램이다
거래일
파장이
유발할
신정
편이지만
##다툼
##요리
##워진
결단
앤젤레스
흩어져
##점도
지원한
3부
민영화
의원들
문구
나경원
##쳤다는
않고도
장인
전선
정준
해군의
##예고
여겨지는
특별수사
##끄러운
공개를
블레
많으며
안정적
탈북자
전역에
붙잡아
빌린
오르면
##퇴직
다르다는
이것저것
입각
캐서
화답
원한다
정해져
성인이
10개월
4명을
광고를
파열
간소
친구에게
총파
친선
호칭
과언이
금리는
시각을
김정은의
민주당과
보편적
후면
##티드
헌정
선정했다
공기가
구조개혁
여자친
김은
꼬마
##대신
기울여
자생
통계를
##들였다
2년을
변질
제품이다
SK하이
위원회는
7조
향하고
##시길
##9명
##블랜드
너무도
선거인
가솔린
##기관으로
하늘의
노태
미즈
두가지
수에
##휴가
##창업
##누스
송영
초고속
각본
확인이
##간접
##률도
미래부
충청남도
환자들이
체질
정보에
타이완
삼성과
채권단
##함께
시행된
말의
##웨이트
동생이
문구를
##미아
평안
표방
청문회를
참가해
절대적인
3000만원
못합니다
여느
청장은
대에
그래야
움직임은
안됩니다
진열
##돼지
svg
충돌을
성적은
구매하는
선수들에게
도끼
넣으면
요동
히스
CH
my
판명
계기
드러내고
기초생활
##푸르
받았는데
따서
버블
연달아
출품
제기하는
버전은
제각
##깁니다
자국의
대미지
진상조사
부가가치
자행
##바위
카메라가
더러운
낙하산
##싸움을
불안감을
평가된다
나무가
방공
##건데
##포와
안녕하세요
서산
##니까요
아동학대
초창기
프로그래밍
시장으로
##었으니
시뮬레이션
트루
계속할
최첨단
##품질
시중에
##강이
위스
그라운드
사용에
땅이
옵션을
건강이
아파트의
사연
내버려
지속되고
BO
낳았다
##IST
상단
아이오와
부장은
##자였던
유지해
스토리가
5인
뱅크
정치권이
##로나
공개하는
바티칸
시도가
##한은
적절하게
좋아하지
둘을
##이노
놀랐다
얘기는
##재와
바라보며
드러내는
고든
기반이
교황은
담보로
가닥
도봉
재무장관
공권
초음
시작해서
홍보를
어려웠다
시위대가
중앙에
미네소
깨닫고
남성을
승리의
부대를
당신에게
인사청문회
##패스
가도
##남에
3명은
이겼
탄산
봐서
##오르는
카드의
##사령관
소비자들은
분명하게
불의
행정구역
담화
않아야
나이를
울려
##것같
방향이
##성기
초코
##말까지
시도하는
한숨을
가하고
LG는
##풍의
적용을
프로젝트에
패스를
##플레
늘렸다
플레이어를
대우를
만화가
북한군
진작
실습
인제
##AM
예상되고
##ase
##회사로
쪽의
이한구
나이는
응답이
1세대
바이러스가
옮길
뜻은
지금보다
달렸다
하였
이동을
학부
##52
키리
기쁘다
4층
일단은
설명한
여기까지
게시판
명과
예고했다
모토로
미군이
##비용이
함락
버전이
표현했다
신고한
사슴
입구에
운동은
번복
시도했다
콤보
눈은
늦어도
##김없이
위반으로
쏟아지는
편리하게
라마
자연스레
윤곽
콘스탄
주인공인
##마블
동급
서머
노력했다
##황이
당선인은
중후
팬들을
워크아웃
320
고군분투
##주었습니다
##턴의
한국전력
블리자
개발도
나서면서
디자인과
##해방
예정대로
선착순
낮추고
본편
보이콧
경전
가마
첨예
케네디
걸을
듣는다
유능한
않으니
top
항생
아슬
은혜
올라오는
개최한다
선고받았다
회원들이
##보호법
8억
##olog
고종
나한테
달랐다
알겠지만
##학부
급격하게
가입할
[unused0]
[unused1]
[unused2]
[unused3]
[unused4]
[unused5]
[unused6]
[unused7]
[unused8]
[unused9]
[unused10]
[unused11]
[unused12]
[unused13]
[unused14]
[unused15]
[unused16]
[unused17]
[unused18]
[unused19]
[unused20]
[unused21]
[unused22]
[unused23]
[unused24]
[unused25]
[unused26]
[unused27]
[unused28]
[unused29]
[unused30]
[unused31]
[unused32]
[unused33]
[unused34]
[unused35]
[unused36]
[unused37]
[unused38]
[unused39]
[unused40]
[unused41]
[unused42]
[unused43]
[unused44]
[unused45]
[unused46]
[unused47]
[unused48]
[unused49]
[unused50]
[unused51]
[unused52]
[unused53]
[unused54]
[unused55]
[unused56]
[unused57]
[unused58]
[unused59]
[unused60]
[unused61]
[unused62]
[unused63]
[unused64]
[unused65]
[unused66]
[unused67]
[unused68]
[unused69]
[unused70]
[unused71]
[unused72]
[unused73]
[unused74]
[unused75]
[unused76]
[unused77]
[unused78]
[unused79]
[unused80]
[unused81]
[unused82]
[unused83]
[unused84]
[unused85]
[unused86]
[unused87]
[unused88]
[unused89]
[unused90]
[unused91]
[unused92]
[unused93]
[unused94]
[unused95]
[unused96]
[unused97]
[unused98]
[unused99]
[unused100]
[unused101]
[unused102]
[unused103]
[unused104]
[unused105]
[unused106]
[unused107]
[unused108]
[unused109]
[unused110]
[unused111]
[unused112]
[unused113]
[unused114]
[unused115]
[unused116]
[unused117]
[unused118]
[unused119]
[unused120]
[unused121]
[unused122]
[unused123]
[unused124]
[unused125]
[unused126]
[unused127]
[unused128]
[unused129]
[unused130]
[unused131]
[unused132]
[unused133]
[unused134]
[unused135]
[unused136]
[unused137]
[unused138]
[unused139]
[unused140]
[unused141]
[unused142]
[unused143]
[unused144]
[unused145]
[unused146]
[unused147]
[unused148]
[unused149]
[unused150]
[unused151]
[unused152]
[unused153]
[unused154]
[unused155]
[unused156]
[unused157]
[unused158]
[unused159]
[unused160]
[unused161]
[unused162]
[unused163]
[unused164]
[unused165]
[unused166]
[unused167]
[unused168]
[unused169]
[unused170]
[unused171]
[unused172]
[unused173]
[unused174]
[unused175]
[unused176]
[unused177]
[unused178]
[unused179]
[unused180]
[unused181]
[unused182]
[unused183]
[unused184]
[unused185]
[unused186]
[unused187]
[unused188]
[unused189]
[unused190]
[unused191]
[unused192]
[unused193]
[unused194]
[unused195]
[unused196]
[unused197]
[unused198]
[unused199]